{
  "version": "1.0",
  "truncation": null,
  "padding": null,
  "added_tokens": [
    {
      "id": 0,
      "content": "<unk>",
      "single_word": false,
      "lstrip": false,
      "rstrip": false,
      "normalized": false,
      "special": true
    },
    {
      "id": 1,
      "content": "<s>",
      "single_word": false,
      "lstrip": false,
      "rstrip": false,
      "normalized": false,
      "special": true
    },
    {
      "id": 2,
      "content": "</s>",
      "single_word": false,
      "lstrip": false,
      "rstrip": false,
      "normalized": false,
      "special": true
    },
    {
      "id": 260,
      "content": "▁<AIX-SPAN-PRE>",
      "single_word": false,
      "lstrip": false,
      "rstrip": false,
      "normalized": false,
      "special": true
    },
    {
      "id": 261,
      "content": "▁<AIX-SPAN-MIDDLE>",
      "single_word": false,
      "lstrip": false,
      "rstrip": false,
      "normalized": false,
      "special": true
    },
    {
      "id": 262,
      "content": "▁<AIX-SPAN-POST>",
      "single_word": false,
      "lstrip": false,
      "rstrip": false,
      "normalized": false,
      "special": true
    },
    {
      "id": 263,
      "content": "▁<AIX-END-TURN>",
      "single_word": false,
      "lstrip": false,
      "rstrip": false,
      "normalized": false,
      "special": true
    },
    {
      "id": 264,
      "content": "▁<AIX-SYSTEM>",
      "single_word": false,
      "lstrip": false,
      "rstrip": false,
      "normalized": false,
      "special": true
    },
    {
      "id": 265,
      "content": "▁<AIX-USER>",
      "single_word": false,
      "lstrip": false,
      "rstrip": false,
      "normalized": false,
      "special": true
    },
    {
      "id": 266,
      "content": "▁<AIX-ASSISTANT>",
      "single_word": false,
      "lstrip": false,
      "rstrip": false,
      "normalized": false,
      "special": true
    }
  ],
  "normalizer": {
    "type": "Sequence",
    "normalizers": [
      {
        "type": "Prepend",
        "prepend": "▁"
      },
      {
        "type": "Replace",
        "pattern": {
          "String": " "
        },
        "content": "▁"
      }
    ]
  },
  "pre_tokenizer": null,
  "post_processor": null,
  "decoder": {
    "type": "Sequence",
    "decoders": [
      {
        "type": "Replace",
        "pattern": {
          "String": "▁"
        },
        "content": " "
      },
      {
        "type": "ByteFallback"
      },
      {
        "type": "Fuse"
      },
      {
        "type": "Strip",
        "content": " ",
        "start": 1,
        "stop": 0
      }
    ]
  },
  "model": {
    "type": "BPE",
    "dropout": null,
    "unk_token": "<unk>",
    "continuing_subword_prefix": null,
    "end_of_word_suffix": null,
    "fuse_unk": true,
    "byte_fallback": true,
    "ignore_merges": false,
    "vocab": {
      "<unk>": 0,
      "<s>": 1,
      "</s>": 2,
      "<0x00>": 3,
      "<0x01>": 4,
      "<0x02>": 5,
      "<0x03>": 6,
      "<0x04>": 7,
      "<0x05>": 8,
      "<0x06>": 9,
      "<0x07>": 10,
      "<0x08>": 11,
      "<0x09>": 12,
      "<0x0A>": 13,
      "<0x0B>": 14,
      "<0x0C>": 15,
      "<0x0D>": 16,
      "<0x0E>": 17,
      "<0x0F>": 18,
      "<0x10>": 19,
      "<0x11>": 20,
      "<0x12>": 21,
      "<0x13>": 22,
      "<0x14>": 23,
      "<0x15>": 24,
      "<0x16>": 25,
      "<0x17>": 26,
      "<0x18>": 27,
      "<0x19>": 28,
      "<0x1A>": 29,
      "<0x1B>": 30,
      "<0x1C>": 31,
      "<0x1D>": 32,
      "<0x1E>": 33,
      "<0x1F>": 34,
      "<0x20>": 35,
      "<0x21>": 36,
      "<0x22>": 37,
      "<0x23>": 38,
      "<0x24>": 39,
      "<0x25>": 40,
      "<0x26>": 41,
      "<0x27>": 42,
      "<0x28>": 43,
      "<0x29>": 44,
      "<0x2A>": 45,
      "<0x2B>": 46,
      "<0x2C>": 47,
      "<0x2D>": 48,
      "<0x2E>": 49,
      "<0x2F>": 50,
      "<0x30>": 51,
      "<0x31>": 52,
      "<0x32>": 53,
      "<0x33>": 54,
      "<0x34>": 55,
      "<0x35>": 56,
      "<0x36>": 57,
      "<0x37>": 58,
      "<0x38>": 59,
      "<0x39>": 60,
      "<0x3A>": 61,
      "<0x3B>": 62,
      "<0x3C>": 63,
      "<0x3D>": 64,
      "<0x3E>": 65,
      "<0x3F>": 66,
      "<0x40>": 67,
      "<0x41>": 68,
      "<0x42>": 69,
      "<0x43>": 70,
      "<0x44>": 71,
      "<0x45>": 72,
      "<0x46>": 73,
      "<0x47>": 74,
      "<0x48>": 75,
      "<0x49>": 76,
      "<0x4A>": 77,
      "<0x4B>": 78,
      "<0x4C>": 79,
      "<0x4D>": 80,
      "<0x4E>": 81,
      "<0x4F>": 82,
      "<0x50>": 83,
      "<0x51>": 84,
      "<0x52>": 85,
      "<0x53>": 86,
      "<0x54>": 87,
      "<0x55>": 88,
      "<0x56>": 89,
      "<0x57>": 90,
      "<0x58>": 91,
      "<0x59>": 92,
      "<0x5A>": 93,
      "<0x5B>": 94,
      "<0x5C>": 95,
      "<0x5D>": 96,
      "<0x5E>": 97,
      "<0x5F>": 98,
      "<0x60>": 99,
      "<0x61>": 100,
      "<0x62>": 101,
      "<0x63>": 102,
      "<0x64>": 103,
      "<0x65>": 104,
      "<0x66>": 105,
      "<0x67>": 106,
      "<0x68>": 107,
      "<0x69>": 108,
      "<0x6A>": 109,
      "<0x6B>": 110,
      "<0x6C>": 111,
      "<0x6D>": 112,
      "<0x6E>": 113,
      "<0x6F>": 114,
      "<0x70>": 115,
      "<0x71>": 116,
      "<0x72>": 117,
      "<0x73>": 118,
      "<0x74>": 119,
      "<0x75>": 120,
      "<0x76>": 121,
      "<0x77>": 122,
      "<0x78>": 123,
      "<0x79>": 124,
      "<0x7A>": 125,
      "<0x7B>": 126,
      "<0x7C>": 127,
      "<0x7D>": 128,
      "<0x7E>": 129,
      "<0x7F>": 130,
      "<0x80>": 131,
      "<0x81>": 132,
      "<0x82>": 133,
      "<0x83>": 134,
      "<0x84>": 135,
      "<0x85>": 136,
      "<0x86>": 137,
      "<0x87>": 138,
      "<0x88>": 139,
      "<0x89>": 140,
      "<0x8A>": 141,
      "<0x8B>": 142,
      "<0x8C>": 143,
      "<0x8D>": 144,
      "<0x8E>": 145,
      "<0x8F>": 146,
      "<0x90>": 147,
      "<0x91>": 148,
      "<0x92>": 149,
      "<0x93>": 150,
      "<0x94>": 151,
      "<0x95>": 152,
      "<0x96>": 153,
      "<0x97>": 154,
      "<0x98>": 155,
      "<0x99>": 156,
      "<0x9A>": 157,
      "<0x9B>": 158,
      "<0x9C>": 159,
      "<0x9D>": 160,
      "<0x9E>": 161,
      "<0x9F>": 162,
      "<0xA0>": 163,
      "<0xA1>": 164,
      "<0xA2>": 165,
      "<0xA3>": 166,
      "<0xA4>": 167,
      "<0xA5>": 168,
      "<0xA6>": 169,
      "<0xA7>": 170,
      "<0xA8>": 171,
      "<0xA9>": 172,
      "<0xAA>": 173,
      "<0xAB>": 174,
      "<0xAC>": 175,
      "<0xAD>": 176,
      "<0xAE>": 177,
      "<0xAF>": 178,
      "<0xB0>": 179,
      "<0xB1>": 180,
      "<0xB2>": 181,
      "<0xB3>": 182,
      "<0xB4>": 183,
      "<0xB5>": 184,
      "<0xB6>": 185,
      "<0xB7>": 186,
      "<0xB8>": 187,
      "<0xB9>": 188,
      "<0xBA>": 189,
      "<0xBB>": 190,
      "<0xBC>": 191,
      "<0xBD>": 192,
      "<0xBE>": 193,
      "<0xBF>": 194,
      "<0xC0>": 195,
      "<0xC1>": 196,
      "<0xC2>": 197,
      "<0xC3>": 198,
      "<0xC4>": 199,
      "<0xC5>": 200,
      "<0xC6>": 201,
      "<0xC7>": 202,
      "<0xC8>": 203,
      "<0xC9>": 204,
      "<0xCA>": 205,
      "<0xCB>": 206,
      "<0xCC>": 207,
      "<0xCD>": 208,
      "<0xCE>": 209,
      "<0xCF>": 210,
      "<0xD0>": 211,
      "<0xD1>": 212,
      "<0xD2>": 213,
      "<0xD3>": 214,
      "<0xD4>": 215,
      "<0xD5>": 216,
      "<0xD6>": 217,
      "<0xD7>": 218,
      "<0xD8>": 219,
      "<0xD9>": 220,
      "<0xDA>": 221,
      "<0xDB>": 222,
      "<0xDC>": 223,
      "<0xDD>": 224,
      "<0xDE>": 225,
      "<0xDF>": 226,
      "<0xE0>": 227,
      "<0xE1>": 228,
      "<0xE2>": 229,
      "<0xE3>": 230,
      "<0xE4>": 231,
      "<0xE5>": 232,
      "<0xE6>": 233,
      "<0xE7>": 234,
      "<0xE8>": 235,
      "<0xE9>": 236,
      "<0xEA>": 237,
      "<0xEB>": 238,
      "<0xEC>": 239,
      "<0xED>": 240,
      "<0xEE>": 241,
      "<0xEF>": 242,
      "<0xF0>": 243,
      "<0xF1>": 244,
      "<0xF2>": 245,
      "<0xF3>": 246,
      "<0xF4>": 247,
      "<0xF5>": 248,
      "<0xF6>": 249,
      "<0xF7>": 250,
      "<0xF8>": 251,
      "<0xF9>": 252,
      "<0xFA>": 253,
      "<0xFB>": 254,
      "<0xFC>": 255,
      "<0xFD>": 256,
      "<0xFE>": 257,
      "<0xFF>": 258,
      "▁<AIX-PAD>": 259,
      "▁<AIX-SPAN-PRE>": 260,
      "▁<AIX-SPAN-MIDDLE>": 261,
      "▁<AIX-SPAN-POST>": 262,
      "▁<AIX-END-TURN>": 263,
      "▁<AIX-SYSTEM>": 264,
      "▁<AIX-USER>": 265,
      "▁<AIX-ASSISTANT>": 266,
      "▁<AIX-ROLE-NAME>": 267,
      "▁<AIX-SPE_TOK_0>": 268,
      "▁<AIX-SPE_TOK_1>": 269,
      "▁<AIX-SPE_TOK_2>": 270,
      "▁<AIX-SPE_TOK_3>": 271,
      "▁<AIX-SPE_TOK_4>": 272,
      "▁<AIX-SPE_TOK_5>": 273,
      "▁<AIX-SPE_TOK_6>": 274,
      "▁<AIX-SPE_TOK_7>": 275,
      "▁<AIX-SPE_TOK_8>": 276,
      "▁<AIX-SPE_TOK_9>": 277,
      "▁<AIX-SPE_TOK_10>": 278,
      "▁<AIX-SPE_TOK_11>": 279,
      "▁<AIX-SPE_TOK_12>": 280,
      "▁<AIX-SPE_TOK_13>": 281,
      "▁<AIX-SPE_TOK_14>": 282,
      "▁<AIX-SPE_TOK_15>": 283,
      "▁<AIX-SPE_TOK_16>": 284,
      "▁<AIX-SPE_TOK_17>": 285,
      "▁<AIX-SPE_TOK_18>": 286,
      "▁<AIX-SPE_TOK_19>": 287,
      "▁<AIX-SPE_TOK_20>": 288,
      "▁<AIX-SPE_TOK_21>": 289,
      "▁<AIX-SPE_TOK_22>": 290,
      "▁<AIX-SPE_TOK_23>": 291,
      "▁<AIX-SPE_TOK_24>": 292,
      "▁<AIX-SPE_TOK_25>": 293,
      "▁<AIX-SPE_TOK_26>": 294,
      "▁<AIX-SPE_TOK_27>": 295,
      "▁<AIX-SPE_TOK_28>": 296,
      "▁<AIX-SPE_TOK_29>": 297,
      "▁<AIX-SPE_TOK_30>": 298,
      "▁<AIX-SPE_TOK_31>": 299,
      "▁<AIX-SPE_TOK_32>": 300,
      "▁<AIX-SPE_TOK_33>": 301,
      "▁<AIX-SPE_TOK_34>": 302,
      "▁<AIX-SPE_TOK_35>": 303,
      "▁<AIX-SPE_TOK_36>": 304,
      "▁<AIX-SPE_TOK_37>": 305,
      "▁<AIX-SPE_TOK_38>": 306,
      "▁<AIX-SPE_TOK_39>": 307,
      "▁<AIX-SPE_TOK_40>": 308,
      "▁<AIX-SPE_TOK_41>": 309,
      "▁<AIX-SPE_TOK_42>": 310,
      "▁<AIX-SPE_TOK_43>": 311,
      "▁<AIX-SPE_TOK_44>": 312,
      "▁<AIX-SPE_TOK_45>": 313,
      "▁<AIX-SPE_TOK_46>": 314,
      "▁<AIX-SPE_TOK_47>": 315,
      "▁<AIX-SPE_TOK_48>": 316,
      "▁<AIX-SPE_TOK_49>": 317,
      "▁<AIX-SPE_TOK_50>": 318,
      "▁<AIX-SPE_TOK_51>": 319,
      "▁<AIX-SPE_TOK_52>": 320,
      "▁<AIX-SPE_TOK_53>": 321,
      "▁<AIX-SPE_TOK_54>": 322,
      "respond": 323,
      "Pad": 324,
      "▁convex": 325,
      "far": 326,
      "▁diab": 327,
      "▁rolls": 328,
      "eland": 329,
      "alen": 330,
      "ients": 331,
      "▁q": 332,
      "▁пів": 333,
      "▁cel": 334,
      "istrz": 335,
      "▁vulner": 336,
      "▁respective": 337,
      "▁cy": 338,
      "olar": 339,
      "▁earnings": 340,
      "▁Dak": 341,
      "On": 342,
      "LEAN": 343,
      "oy": 344,
      "▁inferior": 345,
      "≯": 346,
      "▁assuming": 347,
      "▁renov": 348,
      "▁caract": 349,
      "▁flaw": 350,
      ",": 351,
      "ensuremath": 352,
      "ptic": 353,
      "мор": 354,
      "▁entered": 355,
      "▁Made": 356,
      "phase": 357,
      "▁aest": 358,
      "▁Reich": 359,
      "▁deserves": 360,
      "nings": 361,
      "▁frequencies": 362,
      "특": 363,
      "polation": 364,
      "malloc": 365,
      "student": 366,
      "▁Natur": 367,
      "▁indicating": 368,
      "▁bos": 369,
      "Pr": 370,
      "ryption": 371,
      "▁Gast": 372,
      "▁ear": 373,
      "▁publishing": 374,
      "▁flexible": 375,
      "▁cele": 376,
      "▁cone": 377,
      "Pag": 378,
      "▁Proposition": 379,
      "];\r": 380,
      "oustic": 381,
      "IDS": 382,
      "▁Wo": 383,
      "▁nights": 384,
      "▁towards": 385,
      "▁manuscript": 386,
      "▁Former": 387,
      "▁primer": 388,
      "▁Sir": 389,
      "▁collapse": 390,
      "▁Golf": 391,
      "▁cit": 392,
      "prim": 393,
      "▁Advis": 394,
      "BL": 395,
      "querySelector": 396,
      "酒": 397,
      "▁Form": 398,
      "▁Branch": 399,
      "▁Rol": 400,
      "▁kön": 401,
      "▁Please": 402,
      "▁moved": 403,
      "▁cuts": 404,
      "▁med": 405,
      "sidebar": 406,
      "▁website": 407,
      "▁vä": 408,
      "▁hosting": 409,
      "ile": 410,
      "stroke": 411,
      "Other": 412,
      "ут": 413,
      "▁synd": 414,
      "ই": 415,
      "hba": 416,
      "ститу": 417,
      "FS": 418,
      "Tom": 419,
      "香": 420,
      "во": 421,
      "▁lied": 422,
      "▁ancient": 423,
      "▁compat": 424,
      "▁spe": 425,
      "▁cd": 426,
      "▁vain": 427,
      "▁tastes": 428,
      "▁Carib": 429,
      "▁Nick": 430,
      "宁": 431,
      "neum": 432,
      "Trans": 433,
      "▁ranging": 434,
      "▁queen": 435,
      "ysis": 436,
      "▁blend": 437,
      "▁Marcus": 438,
      "▁infer": 439,
      "▁distinguish": 440,
      "WIDTH": 441,
      "Files": 442,
      "ge": 443,
      "yle": 444,
      "addy": 445,
      "▁demands": 446,
      "▁medicine": 447,
      "insky": 448,
      "eren": 449,
      "achi": 450,
      "▁CM": 451,
      "▁persona": 452,
      "▁Summary": 453,
      "▁cold": 454,
      "olation": 455,
      "False": 456,
      "▁fortunate": 457,
      "▁protect": 458,
      "▁Championship": 459,
      "▁referred": 460,
      "chied": 461,
      "character": 462,
      "idad": 463,
      "▁Farm": 464,
      "▁И": 465,
      "▁Pont": 466,
      "▁development": 467,
      "tesy": 468,
      "▁Pf": 469,
      "ANY": 470,
      "▁Am": 471,
      "▁Swiss": 472,
      "▁Admiral": 473,
      "aves": 474,
      "▁sod": 475,
      "fox": 476,
      "▁triggered": 477,
      "Fast": 478,
      "anto": 479,
      "▁Carter": 480,
      "leq": 481,
      "▁Ralph": 482,
      "▁tape": 483,
      "보": 484,
      "▁Süd": 485,
      "FAILURE": 486,
      "○": 487,
      "▁repeat": 488,
      "▁sharp": 489,
      "Before": 490,
      "▁top": 491,
      "▁mill": 492,
      "held": 493,
      "▁loaded": 494,
      "▁dernier": 495,
      "remark": 496,
      "рон": 497,
      "▁seek": 498,
      "ione": 499,
      "driven": 500,
      "▁dominated": 501,
      "ដ": 502,
      "Here": 503,
      "&\\": 504,
      "▁WP": 505,
      "&": 506,
      "▁Harris": 507,
      "phi": 508,
      "So": 509,
      "▁popularity": 510,
      "▁noten": 511,
      "broad": 512,
      "▁fres": 513,
      "вший": 514,
      "dark": 515,
      "▁saves": 516,
      "ት": 517,
      "▁vag": 518,
      "▁gab": 519,
      "▁Arc": 520,
      "▁having": 521,
      "▁retire": 522,
      "▁ins": 523,
      "Amount": 524,
      "▁Greek": 525,
      "▁der": 526,
      "▁Maria": 527,
      "▁efficiently": 528,
      "Graph": 529,
      "▁safer": 530,
      "ំ": 531,
      "illery": 532,
      "th": 533,
      "),": 534,
      "forward": 535,
      "ieb": 536,
      "vo": 537,
      "▁Sugar": 538,
      "Arm": 539,
      "▁delivering": 540,
      "І": 541,
      "SESSION": 542,
      "▁chose": 543,
      "▁fib": 544,
      "OG": 545,
      "idos": 546,
      "Ć": 547,
      "▁C": 548,
      "적": 549,
      "qa": 550,
      "▁зна": 551,
      "▁contro": 552,
      "atting": 553,
      "ö": 554,
      "\u0006": 555,
      "sequence": 556,
      "while": 557,
      "tbody": 558,
      "TabIndex": 559,
      "▁wondering": 560,
      "互": 561,
      "ön": 562,
      "ias": 563,
      "NEXT": 564,
      "▁Simple": 565,
      "pkg": 566,
      "rcu": 567,
      "ⵉ": 568,
      "controller": 569,
      "▁clo": 570,
      "院": 571,
      "▁editor": 572,
      "▁incluy": 573,
      "▁sometimes": 574,
      "зо": 575,
      "▁identification": 576,
      "ading": 577,
      "▁columns": 578,
      "▁suspic": 579,
      "urm": 580,
      "rect": 581,
      "▁Ten": 582,
      "pas": 583,
      "convert": 584,
      "▁dependence": 585,
      "interrupt": 586,
      "aph": 587,
      "▁fool": 588,
      "entr": 589,
      "ator": 590,
      "fr": 591,
      "▁Ве": 592,
      "▁Russian": 593,
      "▁Io": 594,
      "▁Harrison": 595,
      "Autom": 596,
      "‑": 597,
      "AGE": 598,
      "▁remarks": 599,
      "INIT": 600,
      "▁iz": 601,
      "▁won": 602,
      "**.": 603,
      "▁Mitchell": 604,
      "▁tray": 605,
      "▁tires": 606,
      "Old": 607,
      "ال": 608,
      "ün": 609,
      "▁Common": 610,
      "bigg": 611,
      "зя": 612,
      "▁sow": 613,
      "▁should": 614,
      "osing": 615,
      "▁Ross": 616,
      "较": 617,
      "ภ": 618,
      "вання": 619,
      "▁Missouri": 620,
      "CU": 621,
      "));": 622,
      "Ь": 623,
      "▁Mig": 624,
      "anners": 625,
      "▁before": 626,
      "under": 627,
      "listener": 628,
      "ries": 629,
      "▁painful": 630,
      "event": 631,
      "▁kidn": 632,
      "pha": 633,
      "гля": 634,
      "packages": 635,
      "ÿ": 636,
      "AR": 637,
      "▁outcomes": 638,
      "▁priorities": 639,
      "▁adding": 640,
      "Login": 641,
      "竹": 642,
      "▁waar": 643,
      "▁van": 644,
      "▁base": 645,
      "▁Jackson": 646,
      "Tx": 647,
      "": 648,
      "éra": 649,
      "tes": 650,
      "сон": 651,
      "andro": 652,
      "▁fragment": 653,
      "▁orden": 654,
      "entials": 655,
      "fit": 656,
      "▁Watch": 657,
      "▁material": 658,
      "{$": 659,
      "Running": 660,
      "loads": 661,
      "▁corporation": 662,
      "▁mour": 663,
      "Media": 664,
      "▁Y": 665,
      "▁morning": 666,
      "Norm": 667,
      "▁Wilhelm": 668,
      "▁Fisher": 669,
      "Assignment": 670,
      "▁Rav": 671,
      "defined": 672,
      "тей": 673,
      "▁pills": 674,
      "big": 675,
      "▁practice": 676,
      "▁allowed": 677,
      "▁Besides": 678,
      "▁uncertainty": 679,
      "tenance": 680,
      "лів": 681,
      "start": 682,
      "rès": 683,
      "▁computers": 684,
      "▁passing": 685,
      "▁discover": 686,
      "▁demon": 687,
      "▁planned": 688,
      "bool": 689,
      "------------": 690,
      "▁plugins": 691,
      "cookie": 692,
      "▁selfish": 693,
      "▁cheer": 694,
      "▁conve": 695,
      "▁embr": 696,
      "▁Check": 697,
      "SERVER": 698,
      "▁Editor": 699,
      "ILD": 700,
      "▁Med": 701,
      "▁beskrevs": 702,
      "['": 703,
      "▁августа": 704,
      "Identity": 705,
      "▁gek": 706,
      "▁eer": 707,
      "▁cuatro": 708,
      "▁Http": 709,
      "harm": 710,
      "▁constant": 711,
      "▁Pin": 712,
      "▁dual": 713,
      "Ž": 714,
      "트": 715,
      "▁Park": 716,
      "material": 717,
      "atique": 718,
      "tabular": 719,
      "omorphic": 720,
      "▁gather": 721,
      "▁kör": 722,
      "ák": 723,
      "gender": 724,
      "▁prof": 725,
      "분": 726,
      "▁probe": 727,
      "▁Authors": 728,
      "ッ": 729,
      "问": 730,
      "atin": 731,
      "▁Kitchen": 732,
      "▁smiling": 733,
      "offs": 734,
      "End": 735,
      "▁Front": 736,
      "paths": 737,
      "▁proceed": 738,
      "isons": 739,
      "plete": 740,
      "rolog": 741,
      "▁masses": 742,
      "rière": 743,
      "▁surround": 744,
      "▁Select": 745,
      "ções": 746,
      "akov": 747,
      "▁Hud": 748,
      "▁Sou": 749,
      "Υ": 750,
      "及": 751,
      "한": 752,
      "▁soit": 753,
      "▁Identity": 754,
      "▁два": 755,
      "▁purs": 756,
      "▁passed": 757,
      "asto": 758,
      "notes": 759,
      "▁Dir": 760,
      "\u0011": 761,
      "▁sharply": 762,
      "▁construct": 763,
      "Ref": 764,
      "bach": 765,
      ":": 766,
      "▁whe": 767,
      "▁sucked": 768,
      "க": 769,
      "(((": 770,
      "UPDATE": 771,
      "▁deliver": 772,
      "cript": 773,
      "iglia": 774,
      "finder": 775,
      "覆": 776,
      "▁Radio": 777,
      "▁um": 778,
      "▁dialect": 779,
      "lie": 780,
      "ём": 781,
      "Matrix": 782,
      "▁Intent": 783,
      "▒": 784,
      "isEmpty": 785,
      "▁reply": 786,
      "▁fre": 787,
      "▁keywords": 788,
      "iding": 789,
      "Le": 790,
      "▁try": 791,
      "iders": 792,
      "Que": 793,
      "▁titles": 794,
      "ToString": 795,
      "▁vertex": 796,
      "opens": 797,
      "▁pl": 798,
      "duc": 799,
      "▁кра": 800,
      "▁enthus": 801,
      "▁wise": 802,
      "▁Gir": 803,
      "clusion": 804,
      "岛": 805,
      "임": 806,
      "▁capture": 807,
      "▁stolen": 808,
      "▁routes": 809,
      "*.": 810,
      "via": 811,
      "▁instinct": 812,
      "啊": 813,
      "TE": 814,
      "▁Module": 815,
      "imm": 816,
      "▁CONTRACT": 817,
      "▁header": 818,
      "▁doesn": 819,
      "▁mét": 820,
      "▁programa": 821,
      "▁secure": 822,
      "▁trat": 823,
      "loyd": 824,
      "▁Mus": 825,
      "PB": 826,
      "▁получи": 827,
      "▁Yellow": 828,
      "▁Pot": 829,
      "▁Channel": 830,
      "цев": 831,
      "▁prep": 832,
      "ு": 833,
      "▁ice": 834,
      "▁bur": 835,
      "▁Suppose": 836,
      "chat": 837,
      "▁ri": 838,
      "Pop": 839,
      "gp": 840,
      "▁functions": 841,
      "ron": 842,
      "▁go": 843,
      "пы": 844,
      "▁fo": 845,
      "qq": 846,
      "▁lack": 847,
      "ɪ": 848,
      "ab": 849,
      "า": 850,
      "nor": 851,
      "aked": 852,
      "camp": 853,
      "Models": 854,
      "▁dominant": 855,
      "evt": 856,
      "osed": 857,
      "sort": 858,
      "lua": 859,
      "anded": 860,
      "▁Tru": 861,
      "▁sz": 862,
      "▁our": 863,
      "FIX": 864,
      "actions": 865,
      "density": 866,
      "》": 867,
      "▁dip": 868,
      "▁aber": 869,
      "Meta": 870,
      "▁in": 871,
      "agement": 872,
      "令": 873,
      "▁speaks": 874,
      "Ch": 875,
      "▁LED": 876,
      "与": 877,
      "browser": 878,
      "▁spons": 879,
      "▁Lis": 880,
      "▁Fine": 881,
      "igh": 882,
      "uffed": 883,
      "λ": 884,
      "▁Got": 885,
      "▁this": 886,
      "Access": 887,
      "▁къ": 888,
      "▁dragged": 889,
      "▁Vis": 890,
      "ipped": 891,
      "ropic": 892,
      "AT": 893,
      "page": 894,
      "ّ": 895,
      "WINDO": 896,
      "Ah": 897,
      "elve": 898,
      "么": 899,
      "▁sounded": 900,
      "▁ho": 901,
      "▁zu": 902,
      "▁très": 903,
      "▁ya": 904,
      "ars": 905,
      "parentNode": 906,
      "uffer": 907,
      "asts": 908,
      "▁easier": 909,
      "œuv": 910,
      "ermo": 911,
      "것": 912,
      "▁ranking": 913,
      "割": 914,
      "內": 915,
      "ji": 916,
      "▁registered": 917,
      "▁decor": 918,
      "▁landsc": 919,
      "▁cred": 920,
      "▁ON": 921,
      "oons": 922,
      "▁Co": 923,
      "зыва": 924,
      "datetime": 925,
      "ссе": 926,
      "ред": 927,
      "van": 928,
      "},\\": 929,
      "▁tex": 930,
      "▁circuit": 931,
      "▁convicted": 932,
      "Om": 933,
      "戳": 934,
      "▁passive": 935,
      "▁items": 936,
      "▁sera": 937,
      "ises": 938,
      "borg": 939,
      "载": 940,
      "▁drive": 941,
      "▁ingred": 942,
      "|": 943,
      "èse": 944,
      "▁Democr": 945,
      "单": 946,
      "äd": 947,
      "记": 948,
      "RIGHT": 949,
      "▁waist": 950,
      "CALL": 951,
      "▁property": 952,
      "▁TYPE": 953,
      "▁expans": 954,
      "Great": 955,
      "яви": 956,
      "▁caracter": 957,
      "ville": 958,
      "otimes": 959,
      "aru": 960,
      "▁вели": 961,
      "▁managers": 962,
      "▁products": 963,
      "olve": 964,
      "▁unem": 965,
      "ън": 966,
      "▁terr": 967,
      "emony": 968,
      "ĩ": 969,
      "▁cls": 970,
      "rir": 971,
      "ała": 972,
      "óg": 973,
      "▁pile": 974,
      "Constant": 975,
      "ölker": 976,
      "чески": 977,
      "▁све": 978,
      "amiento": 979,
      "▁essays": 980,
      "cards": 981,
      "▁remind": 982,
      "▁ii": 983,
      "elem": 984,
      "̇": 985,
      "rivial": 986,
      "▁Gro": 987,
      "site": 988,
      "▁survey": 989,
      "ል": 990,
      "tract": 991,
      "▁conversations": 992,
      "▁forgive": 993,
      "▁Roh": 994,
      "ushing": 995,
      "greg": 996,
      "▁cookies": 997,
      "have": 998,
      "}>": 999,
      "▁patron": 1000,
      "ROM": 1001,
      "▁lab": 1002,
      "idden": 1003,
      "世": 1004,
      "▁co": 1005,
      "▁principle": 1006,
      "design": 1007,
      "Super": 1008,
      "zec": 1009,
      "▁авгу": 1010,
      "▁situation": 1011,
      "▁puls": 1012,
      "abeth": 1013,
      "icture": 1014,
      "▁practically": 1015,
      "套": 1016,
      "Х": 1017,
      "▁Claire": 1018,
      "airo": 1019,
      "REQUEST": 1020,
      "▁deadline": 1021,
      "ister": 1022,
      "quote": 1023,
      "▁\\{": 1024,
      "ops": 1025,
      "▁wal": 1026,
      "ď": 1027,
      "osti": 1028,
      "▁memorial": 1029,
      "▁Stockholm": 1030,
      "apache": 1031,
      "▁broker": 1032,
      "▁amounts": 1033,
      ":%": 1034,
      "olly": 1035,
      "▁Jud": 1036,
      "離": 1037,
      "amen": 1038,
      "▁Enterprise": 1039,
      "GLOBAL": 1040,
      "rea": 1041,
      "อ": 1042,
      "ס": 1043,
      "▁governments": 1044,
      "▁fork": 1045,
      "▁forget": 1046,
      "ponent": 1047,
      "▁Py": 1048,
      "": 1049,
      "Un": 1050,
      "keley": 1051,
      "▁chef": 1052,
      "lique": 1053,
      "javascript": 1054,
      "mask": 1055,
      "ром": 1056,
      "▁normally": 1057,
      "▁cope": 1058,
      "arn": 1059,
      "▁env": 1060,
      "近": 1061,
      "▁planning": 1062,
      "▁tem": 1063,
      "়": 1064,
      "▁Avenue": 1065,
      "ھ": 1066,
      "tim": 1067,
      "控": 1068,
      "ème": 1069,
      "▁birds": 1070,
      "▁disturb": 1071,
      "ʻ": 1072,
      "▁animation": 1073,
      "▁opp": 1074,
      "▁sist": 1075,
      "▁outrage": 1076,
      "▁buyer": 1077,
      "FLO": 1078,
      "werk": 1079,
      "▁predicted": 1080,
      "▁ult": 1081,
      "▁Figure": 1082,
      "份": 1083,
      "▁pas": 1084,
      "AppCompat": 1085,
      "\"),": 1086,
      "Buff": 1087,
      "apps": 1088,
      "шение": 1089,
      "ll": 1090,
      "élé": 1091,
      "▁invån": 1092,
      "▁uw": 1093,
      "▁Gren": 1094,
      "▁Tip": 1095,
      "▁phen": 1096,
      "ega": 1097,
      "▁fade": 1098,
      "▁Lebens": 1099,
      "▁regulation": 1100,
      "dims": 1101,
      "▁одно": 1102,
      "▁ри": 1103,
      "Cont": 1104,
      "into": 1105,
      "upper": 1106,
      "▁adventure": 1107,
      "eve": 1108,
      "▁enterprise": 1109,
      "典": 1110,
      "点": 1111,
      "Begin": 1112,
      "inski": 1113,
      "ascript": 1114,
      "istro": 1115,
      "▁tilt": 1116,
      "né": 1117,
      "Mem": 1118,
      "▁calendar": 1119,
      "▁energ": 1120,
      "ARGET": 1121,
      "每": 1122,
      "anned": 1123,
      "Point": 1124,
      "=\"<?": 1125,
      "ez": 1126,
      "▁Eliz": 1127,
      "션": 1128,
      "nes": 1129,
      "achen": 1130,
      "君": 1131,
      "Connect": 1132,
      "▁Yet": 1133,
      "REE": 1134,
      "▁totally": 1135,
      "=\"/": 1136,
      "▁Acc": 1137,
      "isine": 1138,
      "▁дере": 1139,
      "▁CSS": 1140,
      "hew": 1141,
      "▁мет": 1142,
      "▁MS": 1143,
      "▁Clean": 1144,
      "bing": 1145,
      "▁Raj": 1146,
      "led": 1147,
      "▁Nelson": 1148,
      "UR": 1149,
      "▁infinite": 1150,
      "UG": 1151,
      "▁zero": 1152,
      "Util": 1153,
      "eni": 1154,
      "▁prevented": 1155,
      "▁ISO": 1156,
      "ficie": 1157,
      "vare": 1158,
      "Camp": 1159,
      "nych": 1160,
      "\r\r": 1161,
      "額": 1162,
      "▁toler": 1163,
      "▁Economic": 1164,
      "нов": 1165,
      "▁{\r": 1166,
      "printk": 1167,
      "▁demo": 1168,
      "▁delicate": 1169,
      "nil": 1170,
      "step": 1171,
      "▁Raf": 1172,
      "▁anos": 1173,
      "timeout": 1174,
      "▁helps": 1175,
      "▁answering": 1176,
      "ERN": 1177,
      "▁craft": 1178,
      "▁fier": 1179,
      "ills": 1180,
      "seek": 1181,
      "äude": 1182,
      "лав": 1183,
      "▁ay": 1184,
      "▁propag": 1185,
      "▁chrom": 1186,
      "agram": 1187,
      "▁PA": 1188,
      "apter": 1189,
      "▁indent": 1190,
      "▁delicious": 1191,
      "た": 1192,
      "โ": 1193,
      "fas": 1194,
      "▁targets": 1195,
      "▁gradually": 1196,
      "▁när": 1197,
      "▁IN": 1198,
      "▁fifteen": 1199,
      "▁stays": 1200,
      "▁loads": 1201,
      "▁colleg": 1202,
      "ad": 1203,
      "▁Policy": 1204,
      "▁extended": 1205,
      "Marshal": 1206,
      "✔": 1207,
      "▁bu": 1208,
      "▁traveling": 1209,
      "Asset": 1210,
      "ica": 1211,
      "▁lad": 1212,
      "规": 1213,
      "▁archive": 1214,
      "▁Hit": 1215,
      "ONT": 1216,
      "itan": 1217,
      "▁absolutely": 1218,
      "minus": 1219,
      "▁dust": 1220,
      "ល": 1221,
      "▁tard": 1222,
      "`)": 1223,
      "▁distributed": 1224,
      "GBT": 1225,
      "assem": 1226,
      "▁imperial": 1227,
      "=\"${": 1228,
      "▁few": 1229,
      "▁Move": 1230,
      "▁implied": 1231,
      "▁monitoring": 1232,
      "theless": 1233,
      "▁seiner": 1234,
      "▁hecho": 1235,
      "warf": 1236,
      "ächst": 1237,
      "按": 1238,
      "Shader": 1239,
      "alone": 1240,
      "▁stri": 1241,
      "▁Disney": 1242,
      "▁desire": 1243,
      "чина": 1244,
      "iken": 1245,
      "HOST": 1246,
      "▁Kar": 1247,
      "x": 1248,
      "threshold": 1249,
      "▁amely": 1250,
      "umble": 1251,
      "산": 1252,
      "▁Stadium": 1253,
      "码": 1254,
      "ხ": 1255,
      "▁Vien": 1256,
      "▁status": 1257,
      "▁програ": 1258,
      "cen": 1259,
      "클": 1260,
      "▁inside": 1261,
      "▁team": 1262,
      "▁pin": 1263,
      "▁ré": 1264,
      "HE": 1265,
      "▁punto": 1266,
      "igkeit": 1267,
      "▁breeze": 1268,
      "▁sore": 1269,
      "▁Ле": 1270,
      "▁sql": 1271,
      "▁exhaust": 1272,
      "▁pos": 1273,
      "▁явля": 1274,
      "▁Бра": 1275,
      "}}{": 1276,
      "erve": 1277,
      "tera": 1278,
      "サ": 1279,
      "python": 1280,
      "zs": 1281,
      "nej": 1282,
      "▁Hof": 1283,
      "ensive": 1284,
      "при": 1285,
      "▁coupled": 1286,
      "▁chron": 1287,
      "uar": 1288,
      "Em": 1289,
      "ending": 1290,
      "▁Tom": 1291,
      "▁ugly": 1292,
      "▁democracy": 1293,
      "▁surrender": 1294,
      "度": 1295,
      "▁profits": 1296,
      "▁ber": 1297,
      "▁pair": 1298,
      "ipedia": 1299,
      "▁ops": 1300,
      "≥": 1301,
      "econom": 1302,
      "▁who": 1303,
      "▁about": 1304,
      "▁dai": 1305,
      "▁exploration": 1306,
      "▁Bird": 1307,
      "▁diagn": 1308,
      "▁drivers": 1309,
      "Conne": 1310,
      "Inner": 1311,
      "泉": 1312,
      "▁flick": 1313,
      "RT": 1314,
      "▁angles": 1315,
      "equals": 1316,
      "級": 1317,
      "plements": 1318,
      "nia": 1319,
      "▁_,": 1320,
      "Curve": 1321,
      "▁gate": 1322,
      "▁Bei": 1323,
      "▁sooner": 1324,
      "▁union": 1325,
      "▁alien": 1326,
      "▁Ки": 1327,
      "ным": 1328,
      "especially": 1329,
      "▁publisher": 1330,
      "ów": 1331,
      "▁Energy": 1332,
      "ع": 1333,
      "▁Sport": 1334,
      "▁vacc": 1335,
      "week": 1336,
      "▁pian": 1337,
      "▁HIV": 1338,
      "▁sim": 1339,
      "▁finance": 1340,
      "cast": 1341,
      "▁violent": 1342,
      "PDF": 1343,
      "8": 1344,
      "▁рі": 1345,
      "▁possessed": 1346,
      "NdEx": 1347,
      "Named": 1348,
      "release": 1349,
      "╗": 1350,
      "▁strengths": 1351,
      "inas": 1352,
      "▁handful": 1353,
      "▁beautiful": 1354,
      "anted": 1355,
      "▁respons": 1356,
      "trag": 1357,
      "➤": 1358,
      "ró": 1359,
      "▁ceremon": 1360,
      "▁profit": 1361,
      "kernel": 1362,
      "isson": 1363,
      "ษ": 1364,
      "้": 1365,
      "▁circulation": 1366,
      "coord": 1367,
      "ady": 1368,
      "SSL": 1369,
      "asha": 1370,
      "line": 1371,
      "▁phil": 1372,
      "▁rope": 1373,
      "▁prost": 1374,
      "%.": 1375,
      "ive": 1376,
      "шен": 1377,
      "▁Hy": 1378,
      "icas": 1379,
      "stract": 1380,
      "▁boolean": 1381,
      "audio": 1382,
      "elen": 1383,
      "ERROR": 1384,
      "▁Thread": 1385,
      "丝": 1386,
      "▁position": 1387,
      "ografie": 1388,
      "inations": 1389,
      "バ": 1390,
      "▁clan": 1391,
      "cred": 1392,
      "▁attempt": 1393,
      "chair": 1394,
      "nx": 1395,
      "▁Hon": 1396,
      "▁balanced": 1397,
      "▁Kor": 1398,
      "▁likewise": 1399,
      "▁junto": 1400,
      "▁PARTICULAR": 1401,
      "▁Va": 1402,
      "der": 1403,
      "каза": 1404,
      "▁magn": 1405,
      "▁surviving": 1406,
      "▁cannab": 1407,
      "▁\\]": 1408,
      "Common": 1409,
      "▁ordin": 1410,
      "؟": 1411,
      "▁photographs": 1412,
      "True": 1413,
      "▁Bur": 1414,
      "unction": 1415,
      "_{": 1416,
      "▁cort": 1417,
      "▁philosophy": 1418,
      "▁discre": 1419,
      "SK": 1420,
      "itat": 1421,
      "▁Bryan": 1422,
      "bery": 1423,
      "▁ids": 1424,
      "▁Lux": 1425,
      "▁redd": 1426,
      "trained": 1427,
      "▁completion": 1428,
      "iative": 1429,
      "▁lots": 1430,
      "LES": 1431,
      "ks": 1432,
      "cor": 1433,
      "wahl": 1434,
      "=": 1435,
      "veh": 1436,
      "▁fun": 1437,
      "enumerate": 1438,
      "ads": 1439,
      "atinum": 1440,
      "ição": 1441,
      "▁attr": 1442,
      "inking": 1443,
      "▁THE": 1444,
      "▁extend": 1445,
      "▁verification": 1446,
      "▁thorough": 1447,
      "isto": 1448,
      "▁То": 1449,
      "사": 1450,
      "▁pan": 1451,
      "▁Au": 1452,
      "ays": 1453,
      "▁scientists": 1454,
      "▁emb": 1455,
      "Ō": 1456,
      "▁Inter": 1457,
      "glise": 1458,
      "▁Robinson": 1459,
      "ются": 1460,
      "▁item": 1461,
      "▁Rem": 1462,
      "ជ": 1463,
      "best": 1464,
      "编": 1465,
      "▁reports": 1466,
      "▁pecul": 1467,
      "▁teens": 1468,
      "▁barrier": 1469,
      "▁Sunday": 1470,
      "▁blog": 1471,
      "Down": 1472,
      "Sw": 1473,
      "lambda": 1474,
      "▁przed": 1475,
      "も": 1476,
      "++]": 1477,
      "▁besch": 1478,
      "▁issues": 1479,
      "▁findings": 1480,
      "▁reass": 1481,
      "▁Solution": 1482,
      "cp": 1483,
      "man": 1484,
      "calc": 1485,
      "▁comb": 1486,
      "▁Gener": 1487,
      "▁enter": 1488,
      "▁praised": 1489,
      "small": 1490,
      "▁transition": 1491,
      "Should": 1492,
      "ύ": 1493,
      "▁Dallas": 1494,
      "▁pred": 1495,
      "▁že": 1496,
      "▁NGC": 1497,
      "<>();": 1498,
      "▁brew": 1499,
      "▁otros": 1500,
      "ething": 1501,
      "▁Anti": 1502,
      "须": 1503,
      "airs": 1504,
      "▁Within": 1505,
      "▁interest": 1506,
      "▁crucial": 1507,
      "amment": 1508,
      "andidate": 1509,
      "▁Gold": 1510,
      "▁dl": 1511,
      "ц": 1512,
      "Ver": 1513,
      "neut": 1514,
      "式": 1515,
      "agr": 1516,
      "ће": 1517,
      "notification": 1518,
      "lined": 1519,
      "нер": 1520,
      "▁Mat": 1521,
      "▁Viv": 1522,
      "createElement": 1523,
      "關": 1524,
      "▁hold": 1525,
      "ม": 1526,
      "Bound": 1527,
      "ста": 1528,
      "順": 1529,
      "▁hub": 1530,
      "▁buried": 1531,
      "▁assistance": 1532,
      "SG": 1533,
      "вано": 1534,
      "▁mechan": 1535,
      "=\"-": 1536,
      "aki": 1537,
      "▁foram": 1538,
      "▁Area": 1539,
      "Prim": 1540,
      "▁Constant": 1541,
      "▁pale": 1542,
      "ecause": 1543,
      "oly": 1544,
      "ing": 1545,
      "uming": 1546,
      "▁nine": 1547,
      "▁scar": 1548,
      "!)": 1549,
      "▁Russia": 1550,
      "▁Introduction": 1551,
      "▁process": 1552,
      "▁Harm": 1553,
      "▁Heinrich": 1554,
      "opes": 1555,
      "++){": 1556,
      "ôle": 1557,
      "▁gioc": 1558,
      "▁asym": 1559,
      "▁certification": 1560,
      "▁человек": 1561,
      "dirname": 1562,
      "rees": 1563,
      "▁platform": 1564,
      "▁Document": 1565,
      "▁wir": 1566,
      "umin": 1567,
      "ل": 1568,
      "Creat": 1569,
      "'\"": 1570,
      "deserialize": 1571,
      "▁babies": 1572,
      "posing": 1573,
      "ъл": 1574,
      "金": 1575,
      "▁hole": 1576,
      "...\"": 1577,
      "胡": 1578,
      "▁door": 1579,
      "▁second": 1580,
      "▁exclus": 1581,
      ")?": 1582,
      "****": 1583,
      "国": 1584,
      "▁Liter": 1585,
      "波": 1586,
      "▁econom": 1587,
      "Sup": 1588,
      "ök": 1589,
      "elson": 1590,
      "▁Operation": 1591,
      "▁td": 1592,
      "▁luego": 1593,
      "▁stamp": 1594,
      "({": 1595,
      "▁dinner": 1596,
      "▁sweep": 1597,
      "▁Alpha": 1598,
      "▁happen": 1599,
      "со": 1600,
      "从": 1601,
      "master": 1602,
      "ablish": 1603,
      "▁inspect": 1604,
      "▁designer": 1605,
      "arts": 1606,
      "ynamics": 1607,
      "▁losing": 1608,
      "요": 1609,
      "▁Runtime": 1610,
      "bsite": 1611,
      "▁wides": 1612,
      "减": 1613,
      "▁trav": 1614,
      "ят": 1615,
      "▁sen": 1616,
      "eward": 1617,
      "等": 1618,
      "бо": 1619,
      "ancia": 1620,
      "Sequence": 1621,
      "*>": 1622,
      "▁countless": 1623,
      "▁includes": 1624,
      "CESS": 1625,
      "▁hilar": 1626,
      "isten": 1627,
      "endant": 1628,
      "Checker": 1629,
      "▁Byte": 1630,
      "시": 1631,
      "ligt": 1632,
      "scri": 1633,
      "▁floor": 1634,
      "fin": 1635,
      "▁motion": 1636,
      "Have": 1637,
      "MAIL": 1638,
      "▁деятель": 1639,
      "励": 1640,
      "▁Studios": 1641,
      "Contin": 1642,
      "▁void": 1643,
      "▁result": 1644,
      "Regex": 1645,
      "Cl": 1646,
      "Sink": 1647,
      "turn": 1648,
      "▁as": 1649,
      "▁тра": 1650,
      "▁bezeichnet": 1651,
      "тел": 1652,
      "▁electron": 1653,
      "▁momentum": 1654,
      "ateral": 1655,
      "▁athlet": 1656,
      "▁logged": 1657,
      "▁continues": 1658,
      "▁Hab": 1659,
      "ostream": 1660,
      "▁Governor": 1661,
      "▁mounted": 1662,
      "▁sets": 1663,
      "effective": 1664,
      "lt": 1665,
      "ind": 1666,
      "loaded": 1667,
      "nos": 1668,
      "▁volunteers": 1669,
      "bean": 1670,
      "未": 1671,
      "▁needing": 1672,
      "IG": 1673,
      "invalid": 1674,
      "▁HTML": 1675,
      "▁con": 1676,
      "▁talents": 1677,
      "wp": 1678,
      "ORT": 1679,
      "hr": 1680,
      "▁част": 1681,
      "hus": 1682,
      "▁price": 1683,
      "▁giant": 1684,
      "▁keyword": 1685,
      "вать": 1686,
      "Mutex": 1687,
      "р": 1688,
      "▁WIN": 1689,
      "ící": 1690,
      "▁arom": 1691,
      "ido": 1692,
      "▁enhanced": 1693,
      "Then": 1694,
      "▁cancelled": 1695,
      "lers": 1696,
      "▁incorporate": 1697,
      "Đ": 1698,
      "▁Bre": 1699,
      "请": 1700,
      "▁promoted": 1701,
      "?,": 1702,
      "(`": 1703,
      "New": 1704,
      "▁witnessed": 1705,
      "▁Prov": 1706,
      "▁scoring": 1707,
      "quire": 1708,
      "▁synt": 1709,
      "len": 1710,
      "▁челове": 1711,
      "▁NOT": 1712,
      "찾": 1713,
      "▁jak": 1714,
      "▁chi": 1715,
      "있": 1716,
      "▁Jahr": 1717,
      "rezent": 1718,
      "▁Politics": 1719,
      "▁seva": 1720,
      "▁red": 1721,
      "层": 1722,
      "math": 1723,
      "▁Month": 1724,
      "╚": 1725,
      "▁safely": 1726,
      "▁claiming": 1727,
      "▁harm": 1728,
      "ctxt": 1729,
      "▁disag": 1730,
      "ють": 1731,
      "▁countryside": 1732,
      "redit": 1733,
      "pires": 1734,
      "▁entire": 1735,
      "▁ns": 1736,
      "▁Verify": 1737,
      "▁Ut": 1738,
      "▁readonly": 1739,
      "▁bits": 1740,
      "▁farmers": 1741,
      "▁chaque": 1742,
      "\"].": 1743,
      "▁lol": 1744,
      "ucky": 1745,
      "dma": 1746,
      "Search": 1747,
      "▁recomm": 1748,
      "<>": 1749,
      "▁Assert": 1750,
      "▁target": 1751,
      "▁dz": 1752,
      "誤": 1753,
      "指": 1754,
      "▁collabor": 1755,
      "▁Detect": 1756,
      "ర": 1757,
      "String": 1758,
      "wan": 1759,
      "▁source": 1760,
      "erves": 1761,
      "ups": 1762,
      "▁Buch": 1763,
      "Typed": 1764,
      "▁bedroom": 1765,
      "pliers": 1766,
      "rg": 1767,
      "Radio": 1768,
      "container": 1769,
      "▁det": 1770,
      "Oh": 1771,
      "▁learning": 1772,
      "▁logger": 1773,
      "MS": 1774,
      "記": 1775,
      "▁Une": 1776,
      "olf": 1777,
      "IDs": 1778,
      "▁HD": 1779,
      "anten": 1780,
      "arry": 1781,
      "throw": 1782,
      "▁cooked": 1783,
      "약": 1784,
      "joy": 1785,
      "▁suspended": 1786,
      "HO": 1787,
      "ait": 1788,
      "▁slope": 1789,
      "▁rap": 1790,
      "▁myth": 1791,
      "ḷ": 1792,
      "▁barn": 1793,
      "xFF": 1794,
      "unique": 1795,
      "▁Ped": 1796,
      "▁requests": 1797,
      "▁kinda": 1798,
      "▁studied": 1799,
      "▁reserv": 1800,
      "▁agrees": 1801,
      "selector": 1802,
      "WARE": 1803,
      "()),": 1804,
      "зно": 1805,
      "▁mount": 1806,
      "ене": 1807,
      "▁J": 1808,
      "▁Baltimore": 1809,
      "▁Early": 1810,
      "using": 1811,
      "▁BBC": 1812,
      "èmes": 1813,
      "▁intellig": 1814,
      "eling": 1815,
      "▁author": 1816,
      "ис": 1817,
      "ិ": 1818,
      "▁least": 1819,
      "iman": 1820,
      "ues": 1821,
      "icy": 1822,
      "ែ": 1823,
      "IL": 1824,
      "▁recognize": 1825,
      "Created": 1826,
      "▁nuc": 1827,
      "scape": 1828,
      "▁meas": 1829,
      "dt": 1830,
      "▁adoles": 1831,
      "▁Supreme": 1832,
      "▁comm": 1833,
      "adj": 1834,
      "elines": 1835,
      "▁Christ": 1836,
      "arest": 1837,
      "oup": 1838,
      "▁spaces": 1839,
      "osph": 1840,
      "▁Lang": 1841,
      "activ": 1842,
      "è": 1843,
      "▁artist": 1844,
      "ICE": 1845,
      "▁би": 1846,
      "ativa": 1847,
      "▁Medal": 1848,
      "post": 1849,
      "▁periodic": 1850,
      "anc": 1851,
      "empt": 1852,
      "▁Wel": 1853,
      "▁Gent": 1854,
      "▁females": 1855,
      "森": 1856,
      "▁^{": 1857,
      "▁analy": 1858,
      "bw": 1859,
      "▁norte": 1860,
      "▁she": 1861,
      "umbs": 1862,
      "▁record": 1863,
      "▁\"@": 1864,
      "ြ": 1865,
      "arith": 1866,
      "roe": 1867,
      "▁fiscal": 1868,
      "▁arrested": 1869,
      "▁ET": 1870,
      "Pi": 1871,
      "es": 1872,
      "知": 1873,
      "leading": 1874,
      "iences": 1875,
      "▁Camera": 1876,
      "▁ال": 1877,
      "ře": 1878,
      "tto": 1879,
      "JECT": 1880,
      "▁peque": 1881,
      "▁Dec": 1882,
      "▁Насе": 1883,
      "Mus": 1884,
      "astically": 1885,
      "▁preserv": 1886,
      "report": 1887,
      "▁jew": 1888,
      "added": 1889,
      "▁après": 1890,
      "Future": 1891,
      "▁gren": 1892,
      "▁aware": 1893,
      "[\"": 1894,
      "еред": 1895,
      "sterreich": 1896,
      "▁стар": 1897,
      "azu": 1898,
      "bros": 1899,
      "!": 1900,
      "⚭": 1901,
      "Completion": 1902,
      "▁com": 1903,
      "▁Pil": 1904,
      "limited": 1905,
      "сно": 1906,
      "▁politicians": 1907,
      "onie": 1908,
      "▁defines": 1909,
      "▁gener": 1910,
      "footnote": 1911,
      "adora": 1912,
      "incing": 1913,
      "▁Trans": 1914,
      "▁[];": 1915,
      "▁rou": 1916,
      "▁shru": 1917,
      "অ": 1918,
      "mutable": 1919,
      "▁Ec": 1920,
      "AUTH": 1921,
      "LP": 1922,
      "ensch": 1923,
      "RGB": 1924,
      "▁draft": 1925,
      "Authentication": 1926,
      "ень": 1927,
      "▁\"{": 1928,
      "▁Sid": 1929,
      "Or": 1930,
      "Fatalf": 1931,
      "Exp": 1932,
      ",\r": 1933,
      "▁episodes": 1934,
      "öst": 1935,
      "ף": 1936,
      "max": 1937,
      "consum": 1938,
      "Jack": 1939,
      "eree": 1940,
      "▁membre": 1941,
      "▁written": 1942,
      "▁pandemic": 1943,
      "▁wyd": 1944,
      "ock": 1945,
      "▁ImGui": 1946,
      "▁returning": 1947,
      "▁fonction": 1948,
      "timestamp": 1949,
      "strument": 1950,
      "ippi": 1951,
      "▁flag": 1952,
      "ention": 1953,
      "▁journalist": 1954,
      "▁Que": 1955,
      "▁todo": 1956,
      "entities": 1957,
      "ミ": 1958,
      "WM": 1959,
      "▁offer": 1960,
      "▁Russ": 1961,
      "▁waved": 1962,
      "ље": 1963,
      "▁whoever": 1964,
      "노": 1965,
      "Slot": 1966,
      "▁Ah": 1967,
      "onymous": 1968,
      "Hit": 1969,
      "▁Unidos": 1970,
      "соб": 1971,
      "▁suspicion": 1972,
      "Cent": 1973,
      "▁sl": 1974,
      "TT": 1975,
      "subscription": 1976,
      "▁values": 1977,
      "lle": 1978,
      "▁NOTICE": 1979,
      "itals": 1980,
      "▁functioning": 1981,
      "video": 1982,
      "▁Appendix": 1983,
      "▁Won": 1984,
      "▁Holly": 1985,
      "ibile": 1986,
      "▁argc": 1987,
      "▁SA": 1988,
      "▁функ": 1989,
      "keeping": 1990,
      "▁plant": 1991,
      "which": 1992,
      "iani": 1993,
      "▁avril": 1994,
      "lets": 1995,
      "བ": 1996,
      "Soft": 1997,
      "MX": 1998,
      "umes": 1999,
      "オ": 2000,
      "▁Dal": 2001,
      "uve": 2002,
      "SR": 2003,
      "▁meant": 2004,
      "▁Dr": 2005,
      "员": 2006,
      "▁Stories": 2007,
      "▁Observable": 2008,
      "▁Mann": 2009,
      "äft": 2010,
      "well": 2011,
      "▁ker": 2012,
      "▁${\\": 2013,
      "▁kont": 2014,
      "़": 2015,
      "olv": 2016,
      "▁heeft": 2017,
      "됩": 2018,
      "▁destination": 2019,
      "▁announ": 2020,
      "uffle": 2021,
      "▁mě": 2022,
      "ones": 2023,
      "ש": 2024,
      "▁initial": 2025,
      "▁hours": 2026,
      "ages": 2027,
      "▁altri": 2028,
      "inde": 2029,
      "NUMBER": 2030,
      "▁cap": 2031,
      "oria": 2032,
      "▁PORT": 2033,
      "zer": 2034,
      "路": 2035,
      "▁Keep": 2036,
      "▁ov": 2037,
      "ش": 2038,
      "▁arrest": 2039,
      "拼": 2040,
      "▁incap": 2041,
      "groups": 2042,
      "iverse": 2043,
      "▁Ab": 2044,
      "资": 2045,
      "ното": 2046,
      "▁memcpy": 2047,
      "▁aut": 2048,
      "▁wonderful": 2049,
      "▁sea": 2050,
      "cció": 2051,
      "За": 2052,
      "▁wheels": 2053,
      "呢": 2054,
      "Byte": 2055,
      "▁Mult": 2056,
      "送": 2057,
      "ipart": 2058,
      "Most": 2059,
      "unk": 2060,
      "暗": 2061,
      "▁Cooper": 2062,
      "▁ter": 2063,
      "ften": 2064,
      "릭": 2065,
      "cope": 2066,
      "guard": 2067,
      "nez": 2068,
      "▁speeds": 2069,
      "▁tu": 2070,
      "▁faced": 2071,
      "▁осо": 2072,
      "gh": 2073,
      "▁attributes": 2074,
      "itori": 2075,
      "▁Eve": 2076,
      "▁cents": 2077,
      "▁cooperation": 2078,
      "nested": 2079,
      "▁trading": 2080,
      "mp": 2081,
      "inely": 2082,
      "entre": 2083,
      "▁block": 2084,
      "▁formerly": 2085,
      "▁PyObject": 2086,
      "iten": 2087,
      "är": 2088,
      "▁Buenos": 2089,
      "DEC": 2090,
      "▁yelled": 2091,
      "▁Brit": 2092,
      "iers": 2093,
      "ん": 2094,
      "▁для": 2095,
      "arto": 2096,
      "溪": 2097,
      "urst": 2098,
      "Helper": 2099,
      "▁unsafe": 2100,
      "GN": 2101,
      "▁stood": 2102,
      "ố": 2103,
      "▁NS": 2104,
      "▁là": 2105,
      "lik": 2106,
      "prit": 2107,
      "*{": 2108,
      "See": 2109,
      "": 2110,
      "Art": 2111,
      "▁spending": 2112,
      "AIL": 2113,
      "inese": 2114,
      "▁courtesy": 2115,
      "afi": 2116,
      "ushes": 2117,
      "▁formats": 2118,
      "孝": 2119,
      "▁Ian": 2120,
      "▁runner": 2121,
      "mouth": 2122,
      "▁employment": 2123,
      "轻": 2124,
      "Gold": 2125,
      "▁ont": 2126,
      "▁Hir": 2127,
      "æ": 2128,
      "▁legally": 2129,
      "евич": 2130,
      "될": 2131,
      "olk": 2132,
      "ange": 2133,
      "▁Condition": 2134,
      "▁Kö": 2135,
      "ancer": 2136,
      "рев": 2137,
      "▁categor": 2138,
      "▁▁": 2139,
      "FIL": 2140,
      "▁nos": 2141,
      "▁aligned": 2142,
      "▁combining": 2143,
      "▁purple": 2144,
      "▁hiring": 2145,
      "▁played": 2146,
      "Ą": 2147,
      "▁siècle": 2148,
      "▁intermediate": 2149,
      "▁musician": 2150,
      "▁select": 2151,
      "▁communication": 2152,
      "ilt": 2153,
      "▁energet": 2154,
      "Fill": 2155,
      "书": 2156,
      "Build": 2157,
      "iday": 2158,
      "()\r": 2159,
      "dex": 2160,
      "NN": 2161,
      "▁mesh": 2162,
      "▁telling": 2163,
      "▁logs": 2164,
      "▁pm": 2165,
      "▁walls": 2166,
      "DF": 2167,
      "imental": 2168,
      "▁administer": 2169,
      "ZE": 2170,
      "▁something": 2171,
      "sent": 2172,
      "▁consisted": 2173,
      "▁bail": 2174,
      "兴": 2175,
      "Tables": 2176,
      "senal": 2177,
      "▁inches": 2178,
      "▁hor": 2179,
      "zed": 2180,
      "▁cond": 2181,
      "priv": 2182,
      "▁loops": 2183,
      "ially": 2184,
      "ellow": 2185,
      "▁MT": 2186,
      "京": 2187,
      "any": 2188,
      "▁sighed": 2189,
      "▁rejo": 2190,
      "▁coverage": 2191,
      "▁Jahren": 2192,
      "▁mathematical": 2193,
      "ős": 2194,
      "▁mi": 2195,
      "▁обще": 2196,
      "▁Jake": 2197,
      "power": 2198,
      "▁executive": 2199,
      "fo": 2200,
      "▁creativity": 2201,
      "▁inst": 2202,
      "ds": 2203,
      "PAR": 2204,
      "▁devast": 2205,
      "irable": 2206,
      "itage": 2207,
      "▁trunk": 2208,
      "▁Ú": 2209,
      "▁Al": 2210,
      "var": 2211,
      "prov": 2212,
      "▁machine": 2213,
      "ą": 2214,
      "omas": 2215,
      "▁Kon": 2216,
      "▁Пу": 2217,
      "▁dress": 2218,
      "ACK": 2219,
      "local": 2220,
      "ves": 2221,
      "▁parent": 2222,
      "thers": 2223,
      "▁anytime": 2224,
      "ân": 2225,
      "Contract": 2226,
      "▁tables": 2227,
      "▁unlock": 2228,
      "angles": 2229,
      "▁'_": 2230,
      "achten": 2231,
      "▁miejsce": 2232,
      "пло": 2233,
      "aughters": 2234,
      "▁symmetry": 2235,
      "noon": 2236,
      "▁seeks": 2237,
      "Managed": 2238,
      "▁Earth": 2239,
      "Compare": 2240,
      "endor": 2241,
      "▁Kam": 2242,
      "xe": 2243,
      "▁border": 2244,
      "owie": 2245,
      "▁Output": 2246,
      "▁explos": 2247,
      "ess": 2248,
      "少": 2249,
      "shift": 2250,
      "bow": 2251,
      "ología": 2252,
      "IMAGE": 2253,
      "▁(\\": 2254,
      "̪": 2255,
      "ethod": 2256,
      "▁grades": 2257,
      "▁ladies": 2258,
      "▁appealing": 2259,
      "conom": 2260,
      "▁expressed": 2261,
      "▁utilized": 2262,
      "cord": 2263,
      "▁job": 2264,
      "▁посе": 2265,
      "rium": 2266,
      "▁Athlet": 2267,
      "Until": 2268,
      ":-": 2269,
      "Azure": 2270,
      ")^{-": 2271,
      "▁orientation": 2272,
      "▁regular": 2273,
      "▁desen": 2274,
      "▁portfolio": 2275,
      "▁swung": 2276,
      "VID": 2277,
      "cery": 2278,
      "▁Emma": 2279,
      "ribut": 2280,
      "▁Solar": 2281,
      "sbi": 2282,
      "EXEC": 2283,
      "▁skb": 2284,
      "alle": 2285,
      "▁compromise": 2286,
      "illa": 2287,
      "UNT": 2288,
      "▁Cont": 2289,
      "ア": 2290,
      "▁Ž": 2291,
      "Prev": 2292,
      "▁premium": 2293,
      "▁think": 2294,
      "▁humans": 2295,
      "▁jumped": 2296,
      "▁blob": 2297,
      "▁Ensure": 2298,
      "ieri": 2299,
      "▁Orange": 2300,
      "▁Role": 2301,
      "▁litter": 2302,
      "▁messages": 2303,
      "▁jet": 2304,
      "Allowed": 2305,
      "ピ": 2306,
      "▁willing": 2307,
      "▁Henri": 2308,
      "▁camera": 2309,
      "▁restrict": 2310,
      "▁updates": 2311,
      "▁Memorial": 2312,
      "column": 2313,
      "▁Shah": 2314,
      "▁Original": 2315,
      "▁insect": 2316,
      "buffer": 2317,
      "▁Kh": 2318,
      "▁functional": 2319,
      "▁Website": 2320,
      "▁entertainment": 2321,
      "▁sí": 2322,
      "рия": 2323,
      "▁orig": 2324,
      "lights": 2325,
      "anges": 2326,
      "Binding": 2327,
      "payment": 2328,
      "恋": 2329,
      "device": 2330,
      "getItem": 2331,
      "ätt": 2332,
      "unicip": 2333,
      "▁printer": 2334,
      "▁Exp": 2335,
      "radius": 2336,
      "PRO": 2337,
      "FileName": 2338,
      "▁guys": 2339,
      "▁в": 2340,
      "▁ey": 2341,
      "ゴ": 2342,
      "▁acknowled": 2343,
      "▁parad": 2344,
      "▁Phys": 2345,
      "endent": 2346,
      "▁parked": 2347,
      "AV": 2348,
      "▁decided": 2349,
      "opath": 2350,
      "ucture": 2351,
      "▁graduate": 2352,
      "▁lect": 2353,
      "▁hand": 2354,
      "swer": 2355,
      "▁Giov": 2356,
      "▁byl": 2357,
      "▁mort": 2358,
      "▁home": 2359,
      "▁Stack": 2360,
      "म": 2361,
      "HC": 2362,
      "aiser": 2363,
      "ilar": 2364,
      "Op": 2365,
      "▁Symbol": 2366,
      "▁ven": 2367,
      "ols": 2368,
      "▁Tra": 2369,
      "void": 2370,
      "f": 2371,
      "ru": 2372,
      "fico": 2373,
      "▁Fernando": 2374,
      "outer": 2375,
      "▁amid": 2376,
      "преде": 2377,
      "rieb": 2378,
      "▁coefficient": 2379,
      "▁[…]": 2380,
      "restore": 2381,
      "▁burden": 2382,
      "▁Ark": 2383,
      "кры": 2384,
      "arel": 2385,
      "▁CR": 2386,
      "▁dicembre": 2387,
      "Check": 2388,
      "▁MODULE": 2389,
      "▁$|": 2390,
      "▁Theod": 2391,
      "▁¿": 2392,
      "heit": 2393,
      "▁nej": 2394,
      "▁Ald": 2395,
      "icl": 2396,
      ">{": 2397,
      "vé": 2398,
      "Language": 2399,
      "translate": 2400,
      "截": 2401,
      "span": 2402,
      "▁genus": 2403,
      "VED": 2404,
      "灣": 2405,
      "ព": 2406,
      "▁également": 2407,
      "undefined": 2408,
      "▁pok": 2409,
      "izers": 2410,
      "▁background": 2411,
      "▁miracle": 2412,
      "erei": 2413,
      "ol": 2414,
      "\"\"": 2415,
      "ł": 2416,
      "pro": 2417,
      "argin": 2418,
      "▁SDValue": 2419,
      "▁business": 2420,
      "▁Model": 2421,
      "▁WARRAN": 2422,
      "▁says": 2423,
      "S": 2424,
      "▁photos": 2425,
      "Horizontal": 2426,
      "▁Hair": 2427,
      "ifa": 2428,
      "圈": 2429,
      "Shared": 2430,
      "widet": 2431,
      "▁CBS": 2432,
      "▁spo": 2433,
      "strlen": 2434,
      "▁podcast": 2435,
      "▁Ever": 2436,
      "transport": 2437,
      "▁edition": 2438,
      "andon": 2439,
      "amount": 2440,
      "▁Dig": 2441,
      "▁Thomas": 2442,
      "▁advice": 2443,
      "▁railway": 2444,
      "▁cover": 2445,
      "▁consum": 2446,
      "▁preferences": 2447,
      "ulations": 2448,
      "▁exterior": 2449,
      "remarks": 2450,
      "▁foolish": 2451,
      "sv": 2452,
      "突": 2453,
      "atis": 2454,
      "▁proto": 2455,
      "bird": 2456,
      "cir": 2457,
      "▁fields": 2458,
      "learning": 2459,
      "▁пре": 2460,
      "git": 2461,
      "▁Way": 2462,
      "▁skirt": 2463,
      "▁ain": 2464,
      "Been": 2465,
      "▁Tun": 2466,
      "▁lou": 2467,
      "FD": 2468,
      "索": 2469,
      "odge": 2470,
      "ロ": 2471,
      "est": 2472,
      "▁fare": 2473,
      "Rate": 2474,
      "▁bore": 2475,
      "▁initiatives": 2476,
      "▁penetr": 2477,
      "▁protagon": 2478,
      "▁danger": 2479,
      "VL": 2480,
      "liament": 2481,
      "ather": 2482,
      "": 2483,
      "▁bases": 2484,
      "▁intentions": 2485,
      "ixon": 2486,
      "Scope": 2487,
      "▁default": 2488,
      "▁Prix": 2489,
      "UI": 2490,
      "通": 2491,
      "": 2492,
      "nob": 2493,
      "▁abril": 2494,
      "then": 2495,
      "isme": 2496,
      "牛": 2497,
      "CTRL": 2498,
      "▁chill": 2499,
      "▁Mac": 2500,
      "▁gar": 2501,
      "▁Hughes": 2502,
      "nbsp": 2503,
      "▁pregnant": 2504,
      "▁effects": 2505,
      "▁agenda": 2506,
      "kill": 2507,
      "▁organisations": 2508,
      "김": 2509,
      "вня": 2510,
      "ª": 2511,
      "▁Knight": 2512,
      "▁convenience": 2513,
      "▁thrust": 2514,
      "▁produced": 2515,
      "вер": 2516,
      "▁actor": 2517,
      "Source": 2518,
      "▁nowhere": 2519,
      "ül": 2520,
      "▁fore": 2521,
      "▁About": 2522,
      "▁war": 2523,
      "▁sees": 2524,
      "ixels": 2525,
      "▁desde": 2526,
      "▁techniques": 2527,
      "▁sit": 2528,
      "▁range": 2529,
      "▁він": 2530,
      "思": 2531,
      "▁Hand": 2532,
      "▁lost": 2533,
      "Generated": 2534,
      "awk": 2535,
      "dyn": 2536,
      "ℓ": 2537,
      "evalu": 2538,
      "nung": 2539,
      "vil": 2540,
      "▁Aust": 2541,
      "▁leaving": 2542,
      "▁Federation": 2543,
      "▁bleeding": 2544,
      "▁Horn": 2545,
      "decess": 2546,
      "elcome": 2547,
      "▁buff": 2548,
      "ゼ": 2549,
      "▁silk": 2550,
      "▁soul": 2551,
      "▁Used": 2552,
      "cb": 2553,
      "▁great": 2554,
      "LIED": 2555,
      "wind": 2556,
      "▁ihren": 2557,
      "urance": 2558,
      "δ": 2559,
      "oo": 2560,
      "▁classroom": 2561,
      "fu": 2562,
      "ności": 2563,
      "▁salt": 2564,
      "Failure": 2565,
      "▁twee": 2566,
      "state": 2567,
      "copyright": 2568,
      "▁дви": 2569,
      "▁eine": 2570,
      "peg": 2571,
      "▁heute": 2572,
      "им": 2573,
      "Sorry": 2574,
      "▁trial": 2575,
      "▁Tob": 2576,
      "iva": 2577,
      "epper": 2578,
      "원": 2579,
      "ahl": 2580,
      "▁Christopher": 2581,
      "ario": 2582,
      "▁initiative": 2583,
      "▁index": 2584,
      "JSON": 2585,
      "▁animals": 2586,
      "inject": 2587,
      "▁Incre": 2588,
      "▁productivity": 2589,
      "ioni": 2590,
      "ἐ": 2591,
      "keyword": 2592,
      "egr": 2593,
      "▁movements": 2594,
      "∗": 2595,
      "▁теле": 2596,
      "filter": 2597,
      "▁Fore": 2598,
      "eral": 2599,
      "▁toutes": 2600,
      "▁bom": 2601,
      "▁Basket": 2602,
      "▁sigh": 2603,
      "▁amen": 2604,
      "▁Hi": 2605,
      "美": 2606,
      "▁Kate": 2607,
      "ased": 2608,
      "▁sits": 2609,
      "amerikan": 2610,
      "▁În": 2611,
      "▁mid": 2612,
      "▁fragments": 2613,
      "▁inequ": 2614,
      "览": 2615,
      "▁loved": 2616,
      "ylvania": 2617,
      "City": 2618,
      "▁watch": 2619,
      "ță": 2620,
      "겠": 2621,
      "ART": 2622,
      "useum": 2623,
      "aman": 2624,
      "pent": 2625,
      "skip": 2626,
      "▁spots": 2627,
      "PM": 2628,
      "cn": 2629,
      "▁tren": 2630,
      "ков": 2631,
      "owym": 2632,
      "▁Hong": 2633,
      "LIC": 2634,
      "integr": 2635,
      "▁Da": 2636,
      "▁all": 2637,
      "Visual": 2638,
      "▁occupied": 2639,
      "▁ca": 2640,
      "▁samples": 2641,
      ";</": 2642,
      "静": 2643,
      "redirect": 2644,
      "▁Cath": 2645,
      "textcolor": 2646,
      "ɴ": 2647,
      "▁resent": 2648,
      "lich": 2649,
      "▁pp": 2650,
      "HS": 2651,
      "▁overflow": 2652,
      "▁classic": 2653,
      "⌁": 2654,
      "LIB": 2655,
      "▁quite": 2656,
      "▁Service": 2657,
      "Describe": 2658,
      "▁Dennis": 2659,
      "ector": 2660,
      "▁excell": 2661,
      "▁bi": 2662,
      "▁(((": 2663,
      "▁problem": 2664,
      "ometer": 2665,
      "▁Benj": 2666,
      "mul": 2667,
      "▁zich": 2668,
      "CH": 2669,
      "ault": 2670,
      "▁Mc": 2671,
      "则": 2672,
      "▁individually": 2673,
      "abilities": 2674,
      "stop": 2675,
      "▁tom": 2676,
      "ouw": 2677,
      "▁Jac": 2678,
      "▁â": 2679,
      "cfg": 2680,
      "▁ox": 2681,
      "▁diss": 2682,
      "▁seinen": 2683,
      "▁Self": 2684,
      "itating": 2685,
      "▁FR": 2686,
      "TagHelper": 2687,
      "▁leader": 2688,
      "ieve": 2689,
      "▁worse": 2690,
      "posal": 2691,
      "ष": 2692,
      "HasColumn": 2693,
      "▁ital": 2694,
      "▁mat": 2695,
      "Bl": 2696,
      "admin": 2697,
      "rac": 2698,
      "Modifier": 2699,
      "▁wand": 2700,
      "▁stru": 2701,
      "▁две": 2702,
      "col": 2703,
      "▁Rule": 2704,
      "▁FL": 2705,
      "▁containers": 2706,
      "▁complex": 2707,
      "emplate": 2708,
      "「": 2709,
      "▁cette": 2710,
      "▁dismissed": 2711,
      "▁approach": 2712,
      "▁suppose": 2713,
      "▁Cop": 2714,
      "Razor": 2715,
      "gold": 2716,
      "▁quart": 2717,
      "ivot": 2718,
      "ime": 2719,
      "▁hash": 2720,
      "▁mountains": 2721,
      "▁Jama": 2722,
      "required": 2723,
      "▁slammed": 2724,
      "▁batteries": 2725,
      "▁enforcement": 2726,
      "Ρ": 2727,
      "▁miss": 2728,
      "plugin": 2729,
      "▁Art": 2730,
      "SYNC": 2731,
      "а": 2732,
      "▁Lav": 2733,
      "▁Пре": 2734,
      "download": 2735,
      "WEBPACK": 2736,
      "▁wa": 2737,
      "FB": 2738,
      "Unicode": 2739,
      "MUL": 2740,
      "none": 2741,
      "▁continually": 2742,
      "▁dom": 2743,
      "▁Isabel": 2744,
      "ze": 2745,
      "Σ": 2746,
      "▁apartments": 2747,
      "▁homme": 2748,
      ")));": 2749,
      "ষ": 2750,
      "href": 2751,
      "tres": 2752,
      "▁Whenever": 2753,
      "Btn": 2754,
      "Nav": 2755,
      "▁doorway": 2756,
      "bres": 2757,
      "ización": 2758,
      ".....": 2759,
      "▁private": 2760,
      "cup": 2761,
      "abol": 2762,
      "▁naj": 2763,
      ">\"": 2764,
      "vent": 2765,
      "▁computing": 2766,
      "▁southern": 2767,
      "▁balls": 2768,
      "olt": 2769,
      "▁\";": 2770,
      "▁Apart": 2771,
      "▁gained": 2772,
      "selves": 2773,
      "stairs": 2774,
      "▁algorithm": 2775,
      "▁palm": 2776,
      "宇": 2777,
      "roduction": 2778,
      "Hz": 2779,
      "직": 2780,
      "▁пода": 2781,
      "ions": 2782,
      "▁год": 2783,
      "-%": 2784,
      "ym": 2785,
      "▁#####": 2786,
      "▁Deutschland": 2787,
      "▁Global": 2788,
      "省": 2789,
      "▁№": 2790,
      "▁century": 2791,
      "▁bekan": 2792,
      "=\"#": 2793,
      "▁Rod": 2794,
      "▁exceptions": 2795,
      "issant": 2796,
      "▁También": 2797,
      "▁York": 2798,
      "▁chairman": 2799,
      "▁luck": 2800,
      "▁Jer": 2801,
      "▁Tes": 2802,
      "▁jog": 2803,
      "cluster": 2804,
      "子": 2805,
      "obb": 2806,
      "äß": 2807,
      "▁bullet": 2808,
      "▁leather": 2809,
      "郡": 2810,
      "联": 2811,
      "дно": 2812,
      "▁thous": 2813,
      "фі": 2814,
      "▁languages": 2815,
      "▁dirt": 2816,
      "bars": 2817,
      "▁Exception": 2818,
      "out": 2819,
      "▁Seth": 2820,
      "所": 2821,
      "good": 2822,
      "Metadata": 2823,
      "iera": 2824,
      "pio": 2825,
      "じ": 2826,
      "::{": 2827,
      "▁Foster": 2828,
      "▁nun": 2829,
      "▁quietly": 2830,
      "atro": 2831,
      "isen": 2832,
      "sis": 2833,
      "▁eq": 2834,
      "▁beyond": 2835,
      "查": 2836,
      "▁performed": 2837,
      "▁CS": 2838,
      "▁chains": 2839,
      "ities": 2840,
      "▁Both": 2841,
      "▁sue": 2842,
      "Lu": 2843,
      "客": 2844,
      "또": 2845,
      "▁events": 2846,
      "▁allowing": 2847,
      "▁awarded": 2848,
      "SIG": 2849,
      "▁vill": 2850,
      "substring": 2851,
      "▁'@": 2852,
      "pse": 2853,
      "Scene": 2854,
      "ambda": 2855,
      "▁{})": 2856,
      "nate": 2857,
      "enza": 2858,
      "zenie": 2859,
      "▁strang": 2860,
      "▁Teil": 2861,
      "▁parents": 2862,
      "};": 2863,
      "лия": 2864,
      "pend": 2865,
      "ifies": 2866,
      "▁Dop": 2867,
      "化": 2868,
      "comb": 2869,
      "▁sus": 2870,
      "▁divine": 2871,
      "walk": 2872,
      "▁Year": 2873,
      "WORK": 2874,
      "alg": 2875,
      "jer": 2876,
      "▁shadows": 2877,
      "▁crowds": 2878,
      "ER": 2879,
      "😤": 2880,
      "權": 2881,
      "▁Success": 2882,
      "▁disgu": 2883,
      "▁Running": 2884,
      "▁mix": 2885,
      "▁TIME": 2886,
      "▁satell": 2887,
      "bell": 2888,
      "▁Beaut": 2889,
      "으": 2890,
      "▁vectors": 2891,
      "▁owned": 2892,
      "▁organisation": 2893,
      "▁govern": 2894,
      "ського": 2895,
      "유": 2896,
      "▁Masters": 2897,
      "ommen": 2898,
      "addEventListener": 2899,
      "Focus": 2900,
      "▁Further": 2901,
      "啟": 2902,
      "հ": 2903,
      "▁penal": 2904,
      "兼": 2905,
      "岗": 2906,
      "compiler": 2907,
      "▁America": 2908,
      "lé": 2909,
      "▁Main": 2910,
      "▁composition": 2911,
      "▁sculpt": 2912,
      "holm": 2913,
      "бора": 2914,
      "▁і": 2915,
      "▁kennis": 2916,
      "ше": 2917,
      "mag": 2918,
      "Hen": 2919,
      "▁summer": 2920,
      "▁Samuel": 2921,
      "lem": 2922,
      "AC": 2923,
      "aud": 2924,
      "quare": 2925,
      "▁ran": 2926,
      "▁shelter": 2927,
      "▁»,": 2928,
      "▁Enable": 2929,
      ")=": 2930,
      "▁restored": 2931,
      "теля": 2932,
      "ways": 2933,
      "▁screening": 2934,
      "▁Argent": 2935,
      "LM": 2936,
      "▁writer": 2937,
      "One": 2938,
      "▁Giovanni": 2939,
      "▁protein": 2940,
      "▁Tab": 2941,
      "usr": 2942,
      "▁Change": 2943,
      "Text": 2944,
      "织": 2945,
      "inger": 2946,
      "▁Yale": 2947,
      "▁Tel": 2948,
      "▁caller": 2949,
      "ęd": 2950,
      "pling": 2951,
      "half": 2952,
      "Person": 2953,
      "ti": 2954,
      "▁open": 2955,
      "杂": 2956,
      "▁titolo": 2957,
      "▁Why": 2958,
      "phan": 2959,
      "`);": 2960,
      "ING": 2961,
      "▁condu": 2962,
      "▁convin": 2963,
      "▁announced": 2964,
      "▁communicate": 2965,
      "ي": 2966,
      "ilo": 2967,
      "nis": 2968,
      "és": 2969,
      "引": 2970,
      "gem": 2971,
      "ermine": 2972,
      "mysql": 2973,
      "岩": 2974,
      "STM": 2975,
      "ź": 2976,
      "Sql": 2977,
      "▁computed": 2978,
      "▁Bour": 2979,
      "泰": 2980,
      "kl": 2981,
      "陽": 2982,
      "doors": 2983,
      "tip": 2984,
      "▁ich": 2985,
      "Ratio": 2986,
      "▁ils": 2987,
      "▁weights": 2988,
      "isse": 2989,
      "▁patent": 2990,
      "▁exc": 2991,
      "hand": 2992,
      "uuid": 2993,
      "▁brut": 2994,
      "₄": 2995,
      "▁haben": 2996,
      "▁Indeed": 2997,
      ")--(": 2998,
      "setup": 2999,
      "ды": 3000,
      "چ": 3001,
      "hof": 3002,
      "▁detection": 3003,
      "▁innoc": 3004,
      "▁також": 3005,
      "ێ": 3006,
      "rase": 3007,
      "ி": 3008,
      "opacity": 3009,
      "agnostic": 3010,
      "uo": 3011,
      "execut": 3012,
      "itzerland": 3013,
      "équ": 3014,
      "皮": 3015,
      "▁approximate": 3016,
      "Rad": 3017,
      "pack": 3018,
      "▁across": 3019,
      "▁Об": 3020,
      "rw": 3021,
      "▁chart": 3022,
      "ང": 3023,
      "appoint": 3024,
      "▁UP": 3025,
      "▁caps": 3026,
      "Private": 3027,
      "▁eleg": 3028,
      "▁kar": 3029,
      "▁networking": 3030,
      "诉": 3031,
      "▁худож": 3032,
      "▁Après": 3033,
      "edge": 3034,
      "нали": 3035,
      "astic": 3036,
      "▁Cleveland": 3037,
      "aphor": 3038,
      "Si": 3039,
      "很": 3040,
      "▁nj": 3041,
      "ції": 3042,
      "Christ": 3043,
      "Core": 3044,
      "▁Sound": 3045,
      "ecute": 3046,
      "mathsf": 3047,
      "ms": 3048,
      "velop": 3049,
      "▁Palace": 3050,
      "▁lived": 3051,
      "▁Grande": 3052,
      "aming": 3053,
      ".\\": 3054,
      "▁US": 3055,
      "▁Ва": 3056,
      "▁Beautiful": 3057,
      "▁ie": 3058,
      "▁пло": 3059,
      "▁surg": 3060,
      "▁Dort": 3061,
      "▁speak": 3062,
      "▁virtual": 3063,
      "写": 3064,
      "вя": 3065,
      "▁гру": 3066,
      "impl": 3067,
      "uring": 3068,
      "ició": 3069,
      "ض": 3070,
      "▁birth": 3071,
      "comfort": 3072,
      "▁recommendations": 3073,
      "▁O": 3074,
      "Prov": 3075,
      "▁consistency": 3076,
      "⚡": 3077,
      "aced": 3078,
      "isco": 3079,
      "ktur": 3080,
      "▁Reserved": 3081,
      "ється": 3082,
      "▁dc": 3083,
      "ノ": 3084,
      "Transport": 3085,
      "に": 3086,
      "һ": 3087,
      "▁hö": 3088,
      "▁meal": 3089,
      "Mal": 3090,
      "▁withdraw": 3091,
      "foot": 3092,
      "ḩ": 3093,
      "▁\\;": 3094,
      "High": 3095,
      "unge": 3096,
      "念": 3097,
      "▁SP": 3098,
      "ن": 3099,
      "mé": 3100,
      "pi": 3101,
      "▁anything": 3102,
      "得": 3103,
      "▁ski": 3104,
      "ité": 3105,
      "cipl": 3106,
      ")]": 3107,
      "ete": 3108,
      "▁dreams": 3109,
      "▁т": 3110,
      "▁nur": 3111,
      "ingle": 3112,
      "▁É": 3113,
      "ék": 3114,
      "▁Jimmy": 3115,
      "STOP": 3116,
      "▁Day": 3117,
      "▁FUN": 3118,
      "kle": 3119,
      "▁jedoch": 3120,
      "▁fruits": 3121,
      "▁singular": 3122,
      "say": 3123,
      "▁came": 3124,
      "ump": 3125,
      "ි": 3126,
      "▁document": 3127,
      "▁retour": 3128,
      "EV": 3129,
      "▁Пи": 3130,
      "}`": 3131,
      "吗": 3132,
      "横": 3133,
      "▁interpret": 3134,
      "▁vital": 3135,
      "▁hard": 3136,
      "▁Facebook": 3137,
      "log": 3138,
      "shadow": 3139,
      "h": 3140,
      "▁church": 3141,
      "▁allows": 3142,
      "▁officials": 3143,
      "▁usually": 3144,
      "PyObject": 3145,
      "▁exagger": 3146,
      "▁ali": 3147,
      "▁available": 3148,
      "▁younger": 3149,
      "▁Supp": 3150,
      "DAP": 3151,
      "Т": 3152,
      "▁sweat": 3153,
      "▁depress": 3154,
      "▁vague": 3155,
      "▁cand": 3156,
      "ily": 3157,
      "▁crim": 3158,
      "acked": 3159,
      "▁wenn": 3160,
      "ціональ": 3161,
      "called": 3162,
      "acci": 3163,
      "BT": 3164,
      "aters": 3165,
      "▁Yeah": 3166,
      "▁instant": 3167,
      "▁New": 3168,
      "'+": 3169,
      "≠": 3170,
      "ongo": 3171,
      "party": 3172,
      "▁nonsense": 3173,
      "▁lay": 3174,
      "animation": 3175,
      "▁extens": 3176,
      "▁freak": 3177,
      "▁drift": 3178,
      "▁polic": 3179,
      "�": 3180,
      "}\r": 3181,
      "ATE": 3182,
      "阳": 3183,
      "▁thirty": 3184,
      "整": 3185,
      "ержа": 3186,
      "▁la": 3187,
      "льта": 3188,
      "▁used": 3189,
      "ေ": 3190,
      "▁carbon": 3191,
      "ty": 3192,
      "▁premi": 3193,
      "▁под": 3194,
      "▁Assembly": 3195,
      "‹": 3196,
      "▁Charlotte": 3197,
      "▁intent": 3198,
      "мом": 3199,
      "rough": 3200,
      "cm": 3201,
      "▁mamm": 3202,
      "▁MP": 3203,
      "▁voy": 3204,
      "▁später": 3205,
      "▁bucket": 3206,
      "▁SW": 3207,
      "Fi": 3208,
      "▁XII": 3209,
      "ouri": 3210,
      ")&": 3211,
      "acts": 3212,
      "▁Vas": 3213,
      "vd": 3214,
      "▁confer": 3215,
      "▁мар": 3216,
      "▁ně": 3217,
      "blocks": 3218,
      "ско": 3219,
      "terday": 3220,
      "▁achieved": 3221,
      "▁Si": 3222,
      "▁severe": 3223,
      "▁heaven": 3224,
      "▁Bren": 3225,
      "CASE": 3226,
      "▁Orleans": 3227,
      "Enter": 3228,
      "▁lawyer": 3229,
      "ず": 3230,
      "▁Donald": 3231,
      "▁Deep": 3232,
      "ini": 3233,
      "jet": 3234,
      "habil": 3235,
      "Hub": 3236,
      "mathscr": 3237,
      "fb": 3238,
      "從": 3239,
      "Tell": 3240,
      "ပ": 3241,
      "▁type": 3242,
      "▁collections": 3243,
      "▁Я": 3244,
      "▁places": 3245,
      "▁mission": 3246,
      "▁Margaret": 3247,
      "чу": 3248,
      "▁sung": 3249,
      "▁ante": 3250,
      "цион": 3251,
      "▁wx": 3252,
      "조": 3253,
      "▁Err": 3254,
      "Assign": 3255,
      "scriptstyle": 3256,
      "▁[[": 3257,
      "(!": 3258,
      "spr": 3259,
      "▁submar": 3260,
      "reated": 3261,
      "wedge": 3262,
      "▁algo": 3263,
      "Stud": 3264,
      "▁Eisen": 3265,
      "gest": 3266,
      "ction": 3267,
      "SYSTEM": 3268,
      "▁Forum": 3269,
      "Translation": 3270,
      "amo": 3271,
      "gro": 3272,
      "▁reb": 3273,
      "ど": 3274,
      "aro": 3275,
      "▁Г": 3276,
      "▁area": 3277,
      "▁anybody": 3278,
      "▁supply": 3279,
      "▁alleged": 3280,
      "GROUP": 3281,
      "▁Such": 3282,
      "▁implementation": 3283,
      "template": 3284,
      "Bel": 3285,
      "rors": 3286,
      "▁Vo": 3287,
      "нологи": 3288,
      "夜": 3289,
      "fields": 3290,
      "adapter": 3291,
      "о": 3292,
      ":_": 3293,
      "▁ate": 3294,
      "▁Frau": 3295,
      "借": 3296,
      "Page": 3297,
      "▁he": 3298,
      "boldmath": 3299,
      "梦": 3300,
      "▁Bernie": 3301,
      "OwnProperty": 3302,
      "▁champ": 3303,
      "▁Hung": 3304,
      "▁pero": 3305,
      "▁vom": 3306,
      "최": 3307,
      "▁explain": 3308,
      "▁Rosen": 3309,
      "▁island": 3310,
      "▁Ch": 3311,
      "uations": 3312,
      "▁slightly": 3313,
      "▁hers": 3314,
      "▁fate": 3315,
      "ð": 3316,
      "▁disclaimer": 3317,
      "ycz": 3318,
      "▁consists": 3319,
      "}</": 3320,
      "▁Tall": 3321,
      "▁had": 3322,
      "▁Also": 3323,
      "▁literal": 3324,
      "▁Question": 3325,
      "▁Jon": 3326,
      "ними": 3327,
      "\"\r": 3328,
      "▁Nut": 3329,
      "▁Kids": 3330,
      "NER": 3331,
      "▁laughter": 3332,
      "▁glanced": 3333,
      "ữ": 3334,
      "Millis": 3335,
      "▁fog": 3336,
      "icol": 3337,
      "▁five": 3338,
      "évrier": 3339,
      "ungen": 3340,
      "ceived": 3341,
      "mma": 3342,
      "zą": 3343,
      "▁strat": 3344,
      "▁ecc": 3345,
      "▁Lo": 3346,
      "three": 3347,
      "▁END": 3348,
      "▁valued": 3349,
      "ט": 3350,
      "▁shiver": 3351,
      "▁beaten": 3352,
      "树": 3353,
      "valueOf": 3354,
      "▁analog": 3355,
      "▁br": 3356,
      "▁World": 3357,
      "亮": 3358,
      "leep": 3359,
      ".'": 3360,
      "▁own": 3361,
      "quot": 3362,
      "▁Het": 3363,
      "▁apparently": 3364,
      "▁belong": 3365,
      "▁Loren": 3366,
      "uous": 3367,
      "击": 3368,
      "ҳ": 3369,
      "▁Bey": 3370,
      "▁gegründ": 3371,
      "▁significance": 3372,
      "​": 3373,
      "▁patience": 3374,
      "FULL": 3375,
      "delta": 3376,
      "論": 3377,
      "ulsion": 3378,
      "▁equation": 3379,
      "▁ihrer": 3380,
      "共": 3381,
      "pte": 3382,
      "Invoke": 3383,
      "▁mathemat": 3384,
      "berg": 3385,
      "▁hr": 3386,
      "▁satisfied": 3387,
      "▁closing": 3388,
      "순": 3389,
      "ribed": 3390,
      "Ë": 3391,
      "its": 3392,
      "▁Sym": 3393,
      "▁lanz": 3394,
      "速": 3395,
      "ep": 3396,
      "▁TF": 3397,
      "▁nutrition": 3398,
      "Selected": 3399,
      "ush": 3400,
      "▁Ran": 3401,
      "утбо": 3402,
      "ktop": 3403,
      "lee": 3404,
      "$^{-": 3405,
      "ittle": 3406,
      "rec": 3407,
      "ignore": 3408,
      "ilia": 3409,
      "頁": 3410,
      "▁file": 3411,
      "▁Maggie": 3412,
      "denly": 3413,
      "▁lég": 3414,
      "ista": 3415,
      "plaatst": 3416,
      "ო": 3417,
      "task": 3418,
      "▁incred": 3419,
      "NEW": 3420,
      "Vars": 3421,
      "▁cens": 3422,
      "▁pleasant": 3423,
      "\u0019": 3424,
      "▁inhabit": 3425,
      "umper": 3426,
      "Rx": 3427,
      "UnityEngine": 3428,
      "▁implements": 3429,
      "^^": 3430,
      "▁Palmar": 3431,
      "CONFIG": 3432,
      "▁nem": 3433,
      "rib": 3434,
      "initions": 3435,
      "▁filter": 3436,
      "errors": 3437,
      "ining": 3438,
      "ierra": 3439,
      "▁metal": 3440,
      "▁graphic": 3441,
      "ão": 3442,
      "number": 3443,
      "resources": 3444,
      "gif": 3445,
      "сі": 3446,
      "▁God": 3447,
      "▁Та": 3448,
      "des": 3449,
      "▁resolution": 3450,
      "▁genre": 3451,
      ",,": 3452,
      "▁factory": 3453,
      "▁separ": 3454,
      "▁dorm": 3455,
      "▁typeof": 3456,
      "▁Might": 3457,
      "理": 3458,
      "▁dates": 3459,
      "þ": 3460,
      "▁throwing": 3461,
      "▁Deg": 3462,
      "▁م": 3463,
      "▁cav": 3464,
      "**": 3465,
      "▁rv": 3466,
      "▁vice": 3467,
      "▁imper": 3468,
      "ね": 3469,
      "▁Casino": 3470,
      "▁hatred": 3471,
      "reedom": 3472,
      "▁lower": 3473,
      "▁THAT": 3474,
      "Category": 3475,
      "▁PUR": 3476,
      "▁cu": 3477,
      "▁drawings": 3478,
      "alue": 3479,
      "▁chop": 3480,
      "▁octubre": 3481,
      "encias": 3482,
      "olence": 3483,
      "▁($": 3484,
      "▁haar": 3485,
      "न": 3486,
      "={": 3487,
      "▁Dor": 3488,
      "DB": 3489,
      "▁winning": 3490,
      "▁Expl": 3491,
      "▁perm": 3492,
      "▁undefined": 3493,
      "▁vita": 3494,
      "vm": 3495,
      "theme": 3496,
      "рю": 3497,
      "容": 3498,
      "▁sob": 3499,
      "ham": 3500,
      "▁город": 3501,
      "▁Parker": 3502,
      "▁agencies": 3503,
      "▁togg": 3504,
      "ęż": 3505,
      "heet": 3506,
      "▁sous": 3507,
      "кт": 3508,
      "rug": 3509,
      "奥": 3510,
      "▁optional": 3511,
      "▁día": 3512,
      "▁tale": 3513,
      "uck": 3514,
      "▁Кар": 3515,
      "На": 3516,
      "▁ser": 3517,
      "模": 3518,
      "ồ": 3519,
      "ních": 3520,
      "Encode": 3521,
      "awi": 3522,
      "ichten": 3523,
      "月": 3524,
      "▁dish": 3525,
      "ICAL": 3526,
      "▁grounds": 3527,
      "▁Hillary": 3528,
      "▁appl": 3529,
      "▁opts": 3530,
      "▁::": 3531,
      "▁Louis": 3532,
      "Your": 3533,
      "▁arrange": 3534,
      "▁trump": 3535,
      "▁wurden": 3536,
      "cep": 3537,
      "▁quot": 3538,
      "suspend": 3539,
      "...)": 3540,
      "▁Bachelor": 3541,
      "▁tense": 3542,
      "▁Hal": 3543,
      "Der": 3544,
      "▁bright": 3545,
      "WITH": 3546,
      "▁with": 3547,
      "aaaa": 3548,
      "ards": 3549,
      "征": 3550,
      "yll": 3551,
      "▁Gulf": 3552,
      "连": 3553,
      "Tree": 3554,
      "▁sys": 3555,
      "\").": 3556,
      "▁DATA": 3557,
      "Maybe": 3558,
      "▁ag": 3559,
      "郎": 3560,
      "▁trusted": 3561,
      "β": 3562,
      "▁whole": 3563,
      "▁Moreover": 3564,
      "Open": 3565,
      "▁Stalin": 3566,
      "▁termin": 3567,
      "▁кар": 3568,
      "localhost": 3569,
      "ях": 3570,
      "▁experienced": 3571,
      "▁Dun": 3572,
      "▁girlfriend": 3573,
      "▁GF": 3574,
      "▁dream": 3575,
      "stride": 3576,
      "▓": 3577,
      "▁bush": 3578,
      "ε": 3579,
      "▁ensures": 3580,
      "anim": 3581,
      "▁subsequ": 3582,
      "uh": 3583,
      "▁agreement": 3584,
      "▁Singh": 3585,
      "Ke": 3586,
      "▁overwhelming": 3587,
      "ób": 3588,
      "▁Spring": 3589,
      "Mask": 3590,
      "▁dark": 3591,
      "▁variance": 3592,
      "▁hardly": 3593,
      "▁Ar": 3594,
      "▁money": 3595,
      "ût": 3596,
      "▁debt": 3597,
      "▁Regional": 3598,
      "▁чемпи": 3599,
      "▁feature": 3600,
      "parts": 3601,
      "▁ens": 3602,
      "▁работа": 3603,
      "bt": 3604,
      "จ": 3605,
      "▁уби": 3606,
      "▁fifty": 3607,
      "conde": 3608,
      "▁swift": 3609,
      "▁spend": 3610,
      "▁politics": 3611,
      "▁компа": 3612,
      "▁expression": 3613,
      "rz": 3614,
      "▁més": 3615,
      "▁invent": 3616,
      "▁Ell": 3617,
      "페": 3618,
      "▁partic": 3619,
      "-----": 3620,
      "▁modal": 3621,
      "▁Liz": 3622,
      "▁corpor": 3623,
      "mand": 3624,
      "transition": 3625,
      "\")]": 3626,
      "▁nevertheless": 3627,
      "osoph": 3628,
      "▁ге": 3629,
      "author": 3630,
      "▁usize": 3631,
      "▁connecting": 3632,
      "▁rif": 3633,
      "ième": 3634,
      "▁thousands": 3635,
      "▁Theme": 3636,
      "thing": 3637,
      "could": 3638,
      "ง": 3639,
      "emás": 3640,
      "ischer": 3641,
      "▁Duncan": 3642,
      "대": 3643,
      "ographie": 3644,
      "uls": 3645,
      "▁pink": 3646,
      "前": 3647,
      "▁Kre": 3648,
      "▁vier": 3649,
      "▁along": 3650,
      "▁reducing": 3651,
      "▁Blues": 3652,
      "▁tears": 3653,
      "▁aboard": 3654,
      "▁Coord": 3655,
      "door": 3656,
      "▁+=": 3657,
      "rite": 3658,
      "▁gen": 3659,
      "モ": 3660,
      "(\"<": 3661,
      "ظ": 3662,
      "fort": 3663,
      "仪": 3664,
      "наль": 3665,
      "▁воло": 3666,
      "▁Food": 3667,
      "▁Token": 3668,
      "居": 3669,
      "таль": 3670,
      "▁fait": 3671,
      "ນ": 3672,
      "ล": 3673,
      "ют": 3674,
      "render": 3675,
      "env": 3676,
      "iod": 3677,
      "▁aster": 3678,
      "ей": 3679,
      "▁Rab": 3680,
      "){\r": 3681,
      "ños": 3682,
      "]))": 3683,
      "▁fight": 3684,
      "격": 3685,
      "হ": 3686,
      "▁struggling": 3687,
      "▁Ju": 3688,
      "▁dub": 3689,
      "▁chr": 3690,
      "▁Amer": 3691,
      "espec": 3692,
      "▁террито": 3693,
      "pert": 3694,
      "▁accurate": 3695,
      "izio": 3696,
      "ingu": 3697,
      "▁altern": 3698,
      "eed": 3699,
      "allet": 3700,
      "▁Leop": 3701,
      "▁dataset": 3702,
      "thumb": 3703,
      "장": 3704,
      "▁Vit": 3705,
      "▁vis": 3706,
      "blic": 3707,
      "ich": 3708,
      "Hist": 3709,
      "▁Lemma": 3710,
      "प": 3711,
      "Machine": 3712,
      "ження": 3713,
      "▁ing": 3714,
      "▁shoe": 3715,
      "▁controlling": 3716,
      "▁Trace": 3717,
      "awt": 3718,
      "Vec": 3719,
      "▁Audio": 3720,
      "▁мно": 3721,
      "Pipeline": 3722,
      "click": 3723,
      "▁Lip": 3724,
      "▁FIXME": 3725,
      "deck": 3726,
      "▁Util": 3727,
      "▁crusher": 3728,
      "▁FM": 3729,
      "▁ub": 3730,
      "ittel": 3731,
      "eno": 3732,
      "▁área": 3733,
      "▁requirement": 3734,
      "▁proxim": 3735,
      "frame": 3736,
      "կ": 3737,
      "Observ": 3738,
      "▁islands": 3739,
      "Intent": 3740,
      "▁perfectly": 3741,
      "▁geme": 3742,
      "▁verd": 3743,
      "inus": 3744,
      "Override": 3745,
      "▁entert": 3746,
      "ف": 3747,
      "Fragment": 3748,
      "▁plug": 3749,
      "ENABLE": 3750,
      "▁Side": 3751,
      "▁Orts": 3752,
      "▁#{": 3753,
      "akh": 3754,
      "▁ban": 3755,
      "▁Kas": 3756,
      "▁/": 3757,
      "▁ná": 3758,
      "항": 3759,
      "prote": 3760,
      "▁(_": 3761,
      "▁Flash": 3762,
      "[<": 3763,
      "▁гу": 3764,
      "sw": 3765,
      "▁heavy": 3766,
      "▁remarked": 3767,
      "▁peace": 3768,
      "▁dem": 3769,
      "▁dealt": 3770,
      "ogan": 3771,
      "▁relating": 3772,
      "▁Mai": 3773,
      "▁terrible": 3774,
      "李": 3775,
      "rente": 3776,
      "routes": 3777,
      "odi": 3778,
      "▁writers": 3779,
      ">()": 3780,
      "pressed": 3781,
      "ief": 3782,
      "▁siè": 3783,
      "navigation": 3784,
      "čen": 3785,
      "亲": 3786,
      "师": 3787,
      "▁ray": 3788,
      "▁Sold": 3789,
      "▁engineer": 3790,
      "▁Diese": 3791,
      "Te": 3792,
      "▁mö": 3793,
      "▁Carlo": 3794,
      "▁ready": 3795,
      "зда": 3796,
      "▁galax": 3797,
      "▁colleges": 3798,
      "▁Technology": 3799,
      "▁jun": 3800,
      "ger": 3801,
      "aged": 3802,
      "react": 3803,
      "▁worth": 3804,
      "ל": 3805,
      "ließ": 3806,
      "▁Guerra": 3807,
      "▁vál": 3808,
      "▁dread": 3809,
      "▁raison": 3810,
      "ayer": 3811,
      "▁cref": 3812,
      "": 3813,
      "▁reach": 3814,
      "▁advoc": 3815,
      "▁diver": 3816,
      "▁'',": 3817,
      "jango": 3818,
      "▁parse": 3819,
      "▁Price": 3820,
      "▁tenía": 3821,
      "\\\",": 3822,
      "aron": 3823,
      "▁PRO": 3824,
      "Peer": 3825,
      "stream": 3826,
      "视": 3827,
      "▁'''": 3828,
      "▁Tay": 3829,
      "real": 3830,
      "кор": 3831,
      "▁Systems": 3832,
      "▁child": 3833,
      "pan": 3834,
      "▁района": 3835,
      "Int": 3836,
      "▁projection": 3837,
      "ろ": 3838,
      "▁Ground": 3839,
      "rad": 3840,
      "▁Freder": 3841,
      "▁machines": 3842,
      "ober": 3843,
      "comment": 3844,
      "lass": 3845,
      "验": 3846,
      "Free": 3847,
      "▁Dead": 3848,
      "－": 3849,
      "oks": 3850,
      "▁Dim": 3851,
      "▁воен": 3852,
      "bre": 3853,
      "aw": 3854,
      "鱼": 3855,
      "ées": 3856,
      "curs": 3857,
      "▁pobl": 3858,
      "▁driving": 3859,
      "▁perform": 3860,
      "ׁ": 3861,
      "/)": 3862,
      "▁strange": 3863,
      "üt": 3864,
      "▁rab": 3865,
      "azz": 3866,
      "▁units": 3867,
      "▁absurd": 3868,
      "▁makes": 3869,
      "▁combination": 3870,
      "Span": 3871,
      "WH": 3872,
      "▁kat": 3873,
      "ший": 3874,
      "bled": 3875,
      "了": 3876,
      "▁provision": 3877,
      "ährend": 3878,
      "▁это": 3879,
      "▁permanent": 3880,
      "▁degree": 3881,
      "▁mysterious": 3882,
      "▁Dob": 3883,
      "attan": 3884,
      "edi": 3885,
      "▁Har": 3886,
      "slide": 3887,
      "xc": 3888,
      "▁últ": 3889,
      "▁immigration": 3890,
      "▁sele": 3891,
      "MO": 3892,
      "▁Ontario": 3893,
      "lector": 3894,
      "▁tolerance": 3895,
      "▁travers": 3896,
      "dem": 3897,
      "▁Pacific": 3898,
      "▁asset": 3899,
      "▁Singapore": 3900,
      "▁Race": 3901,
      "▁penalty": 3902,
      "mn": 3903,
      "▁иг": 3904,
      "▁dumb": 3905,
      "▁vá": 3906,
      "▁tier": 3907,
      "ская": 3908,
      "obby": 3909,
      "ov": 3910,
      "▁Wallace": 3911,
      "다": 3912,
      "▁DVD": 3913,
      "▁>>>": 3914,
      "중": 3915,
      "WW": 3916,
      "▁submitted": 3917,
      "icons": 3918,
      "jsce": 3919,
      "▁Е": 3920,
      "вые": 3921,
      "▁gut": 3922,
      "雅": 3923,
      "aats": 3924,
      "nam": 3925,
      "expr": 3926,
      "평": 3927,
      "▁IT": 3928,
      "▁В": 3929,
      "▁intellectual": 3930,
      "▁total": 3931,
      "▁revers": 3932,
      "▁стру": 3933,
      "ateful": 3934,
      "▁liked": 3935,
      "▁privacy": 3936,
      "har": 3937,
      "▁dozen": 3938,
      "▁poll": 3939,
      "▁toss": 3940,
      "▁Pun": 3941,
      "▁funding": 3942,
      "▁talented": 3943,
      "—": 3944,
      "▁typ": 3945,
      "▁viewing": 3946,
      "▁curiosity": 3947,
      "kil": 3948,
      "▁broken": 3949,
      "▁again": 3950,
      "▁Einwohner": 3951,
      "ministr": 3952,
      "Ա": 3953,
      "▁nost": 3954,
      "▁dev": 3955,
      "▁communes": 3956,
      "▁fantastic": 3957,
      "▁Comput": 3958,
      "rew": 3959,
      "haps": 3960,
      "▁du": 3961,
      "UInt": 3962,
      "ུ": 3963,
      "▁Asia": 3964,
      "логи": 3965,
      "▁Natural": 3966,
      "▁planets": 3967,
      "▁LE": 3968,
      "▁payload": 3969,
      "缀": 3970,
      "성": 3971,
      "sync": 3972,
      "ulle": 3973,
      "TRAN": 3974,
      "Face": 3975,
      "Deep": 3976,
      "▁Utah": 3977,
      "▁Lincoln": 3978,
      "oked": 3979,
      "▁house": 3980,
      "▁lucky": 3981,
      "ỹ": 3982,
      "bold": 3983,
      "▁peaceful": 3984,
      "▁conscious": 3985,
      "olving": 3986,
      "半": 3987,
      "始": 3988,
      "minded": 3989,
      "季": 3990,
      "signed": 3991,
      "eted": 3992,
      "▁react": 3993,
      "▁operate": 3994,
      "▁portable": 3995,
      "American": 3996,
      "幸": 3997,
      "▁|": 3998,
      "▁Well": 3999,
      "pause": 4000,
      "▁dass": 4001,
      "▁Later": 4002,
      "▁touched": 4003,
      "▁propriet": 4004,
      "cl": 4005,
      "ня": 4006,
      "▁segu": 4007,
      "▁predomin": 4008,
      "company": 4009,
      "stub": 4010,
      "▁fant": 4011,
      "": 4012,
      "给": 4013,
      "▁particularly": 4014,
      "Range": 4015,
      "▁lowered": 4016,
      "ulator": 4017,
      "▁Zur": 4018,
      "ons": 4019,
      "▁equilibrium": 4020,
      "▁HP": 4021,
      "▁timing": 4022,
      "▁meters": 4023,
      "smith": 4024,
      "▁Open": 4025,
      "▁uno": 4026,
      "Schedule": 4027,
      "\\}": 4028,
      "c": 4029,
      "▁probably": 4030,
      "▁deciding": 4031,
      "EOF": 4032,
      "war": 4033,
      "▁gentleman": 4034,
      "úblic": 4035,
      "▁Corpor": 4036,
      "!(\"": 4037,
      "________": 4038,
      "Zone": 4039,
      "▁algun": 4040,
      "▁Econom": 4041,
      "▁beans": 4042,
      "áll": 4043,
      "▁ву": 4044,
      "ashes": 4045,
      "̣": 4046,
      "▁AT": 4047,
      "grade": 4048,
      "Bag": 4049,
      "message": 4050,
      "▁output": 4051,
      "▁wid": 4052,
      "\\,": 4053,
      "▁року": 4054,
      "▁Amaz": 4055,
      "syn": 4056,
      "µ": 4057,
      "▁amongst": 4058,
      "▁станови": 4059,
      "/:": 4060,
      "▁another": 4061,
      "▁marzo": 4062,
      "▁organic": 4063,
      "▁dels": 4064,
      "Stand": 4065,
      "▁Next": 4066,
      "irmingham": 4067,
      "▁improvement": 4068,
      "Ar": 4069,
      "nt": 4070,
      "mot": 4071,
      "».": 4072,
      "▁Illuminate": 4073,
      "▁correct": 4074,
      "π": 4075,
      "▁Rein": 4076,
      "▁clim": 4077,
      "Manager": 4078,
      "лок": 4079,
      "д": 4080,
      "▁lists": 4081,
      "widget": 4082,
      "than": 4083,
      "Alloc": 4084,
      "▁тре": 4085,
      "}_\\": 4086,
      "▁navigation": 4087,
      "▁hybrid": 4088,
      "nail": 4089,
      "▁knees": 4090,
      "Cart": 4091,
      "tag": 4092,
      "zet": 4093,
      "▁Chile": 4094,
      "▁institutional": 4095,
      "▁Lin": 4096,
      "matched": 4097,
      "九": 4098,
      "})}": 4099,
      "▁preventing": 4100,
      "ння": 4101,
      "illet": 4102,
      "测": 4103,
      "ified": 4104,
      "aments": 4105,
      "--------------": 4106,
      "▁edges": 4107,
      "бра": 4108,
      "guid": 4109,
      "▁kit": 4110,
      "▁settlement": 4111,
      "culate": 4112,
      "牙": 4113,
      "Results": 4114,
      "▁Bring": 4115,
      "▁factors": 4116,
      "та": 4117,
      "ется": 4118,
      "щё": 4119,
      "▁Getting": 4120,
      "▁KIND": 4121,
      "ule": 4122,
      "ктив": 4123,
      "▁Бо": 4124,
      "columns": 4125,
      "▁oil": 4126,
      "ayout": 4127,
      "dropdown": 4128,
      "▁(«": 4129,
      "RA": 4130,
      "▁wave": 4131,
      "差": 4132,
      "urent": 4133,
      "ито": 4134,
      "\";": 4135,
      "▁chosen": 4136,
      "▁Upon": 4137,
      "тах": 4138,
      "\b": 4139,
      "blank": 4140,
      "Di": 4141,
      "hist": 4142,
      "▁Equip": 4143,
      "络": 4144,
      "▁extensions": 4145,
      "▁amateur": 4146,
      "林": 4147,
      "▁Пет": 4148,
      "way": 4149,
      "▁weitere": 4150,
      "▁trim": 4151,
      "▁inn": 4152,
      "▁NBC": 4153,
      "OLD": 4154,
      "arsi": 4155,
      "▁remain": 4156,
      "следова": 4157,
      "▁blessed": 4158,
      "▁Creek": 4159,
      "▁Sp": 4160,
      "ZZ": 4161,
      "poll": 4162,
      "this": 4163,
      "▁Sull": 4164,
      "Ш": 4165,
      "▁domains": 4166,
      "▁райо": 4167,
      "▁Sof": 4168,
      "lines": 4169,
      "▁Block": 4170,
      "istically": 4171,
      "▁fir": 4172,
      "▁perception": 4173,
      "▁statement": 4174,
      "▁lanç": 4175,
      "aqu": 4176,
      "▁tod": 4177,
      "___": 4178,
      "пар": 4179,
      "▁reminder": 4180,
      "▁calls": 4181,
      "ulin": 4182,
      "▁modo": 4183,
      "ARE": 4184,
      "});\r": 4185,
      "．": 4186,
      "ун": 4187,
      "▁ministry": 4188,
      "odot": 4189,
      "entries": 4190,
      "▁scalar": 4191,
      "▁Marx": 4192,
      "如": 4193,
      "CHECK": 4194,
      "Country": 4195,
      "azure": 4196,
      "ictions": 4197,
      "▁weeks": 4198,
      "尼": 4199,
      "▁neglect": 4200,
      "▁горо": 4201,
      "née": 4202,
      "lect": 4203,
      "▁stranger": 4204,
      "comments": 4205,
      "▁income": 4206,
      "Location": 4207,
      "never": 4208,
      "▁mant": 4209,
      "bp": 4210,
      "▁I": 4211,
      "oki": 4212,
      "general": 4213,
      "鲁": 4214,
      "ír": 4215,
      "象": 4216,
      "▁earliest": 4217,
      "▁touch": 4218,
      "赖": 4219,
      "讲": 4220,
      "▁threatening": 4221,
      "▁cur": 4222,
      "▁digest": 4223,
      "NO": 4224,
      "▁escape": 4225,
      "▁removed": 4226,
      "▁apolog": 4227,
      "▁vol": 4228,
      "▁Israeli": 4229,
      "▁Никола": 4230,
      "▁unhappy": 4231,
      "Ə": 4232,
      "Copy": 4233,
      "▁uses": 4234,
      "agnostics": 4235,
      "▁deposit": 4236,
      "▁nobody": 4237,
      "▁fucking": 4238,
      "▁им": 4239,
      "▁Cer": 4240,
      "▁only": 4241,
      "▁feat": 4242,
      "▁Hill": 4243,
      "確": 4244,
      "лось": 4245,
      "密": 4246,
      "▁Bis": 4247,
      "wb": 4248,
      "▁Client": 4249,
      "▁comfort": 4250,
      "Eval": 4251,
      "$_": 4252,
      "▁osc": 4253,
      "▁Mississ": 4254,
      "Signature": 4255,
      "Blo": 4256,
      "aye": 4257,
      "red": 4258,
      "▁adoption": 4259,
      "iated": 4260,
      "CONNECT": 4261,
      "WORD": 4262,
      "▁Civil": 4263,
      "▁Fle": 4264,
      "Transaction": 4265,
      "▁promote": 4266,
      "CTOR": 4267,
      "▁dun": 4268,
      "▁trail": 4269,
      "線": 4270,
      "▁extensive": 4271,
      "▁specifically": 4272,
      "某": 4273,
      "finite": 4274,
      "decl": 4275,
      "˚": 4276,
      "▁nap": 4277,
      "ORDER": 4278,
      "ivers": 4279,
      "▁convention": 4280,
      "▁assign": 4281,
      "▁Site": 4282,
      "▁inclusive": 4283,
      "招": 4284,
      "▁Region": 4285,
      "??": 4286,
      "▁indeed": 4287,
      "ules": 4288,
      "假": 4289,
      "▁capital": 4290,
      "Fail": 4291,
      "être": 4292,
      "Used": 4293,
      "band": 4294,
      "▁highest": 4295,
      "LOG": 4296,
      "▁Computer": 4297,
      "▁consultant": 4298,
      "▁drain": 4299,
      "perform": 4300,
      "▁neighbors": 4301,
      "货": 4302,
      "ro": 4303,
      "▁agricultural": 4304,
      "sel": 4305,
      "ilation": 4306,
      "▁worship": 4307,
      "▁gathered": 4308,
      "企": 4309,
      "▁Isaac": 4310,
      "▁sam": 4311,
      "▁noble": 4312,
      "▁consecut": 4313,
      "were": 4314,
      "▁Cook": 4315,
      "▁Root": 4316,
      "▁sponsored": 4317,
      "▁txt": 4318,
      "▁prevent": 4319,
      "▁Rum": 4320,
      "▁scientist": 4321,
      "▁Jug": 4322,
      "anga": 4323,
      "▁boundaries": 4324,
      "▁CRC": 4325,
      "naments": 4326,
      "ric": 4327,
      "▁em": 4328,
      "êt": 4329,
      "▁Opp": 4330,
      "▁fair": 4331,
      "▁accommodation": 4332,
      "▁diam": 4333,
      "aching": 4334,
      "bed": 4335,
      ">.": 4336,
      "▁VT": 4337,
      "他": 4338,
      ",”": 4339,
      "Ṭ": 4340,
      "Class": 4341,
      "▁BL": 4342,
      "▁Становништво": 4343,
      "wiki": 4344,
      "▁formally": 4345,
      "opher": 4346,
      "▁Use": 4347,
      "ig": 4348,
      "eneath": 4349,
      "▁households": 4350,
      "▁signific": 4351,
      "hop": 4352,
      "▁impacts": 4353,
      "cli": 4354,
      "▁audio": 4355,
      "▁DAG": 4356,
      "ixel": 4357,
      "XML": 4358,
      "▁exclude": 4359,
      "▁Be": 4360,
      "▁Sydney": 4361,
      "elijke": 4362,
      "ressed": 4363,
      "IES": 4364,
      "zel": 4365,
      "цию": 4366,
      "popup": 4367,
      "顯": 4368,
      "▁accident": 4369,
      "▁accommodate": 4370,
      "관": 4371,
      "▁),": 4372,
      "▁stuffed": 4373,
      "▁heal": 4374,
      "resse": 4375,
      "▁reserve": 4376,
      "▁glow": 4377,
      "▁achieving": 4378,
      "fö": 4379,
      "ན": 4380,
      "▁реги": 4381,
      "acle": 4382,
      "▁fus": 4383,
      "▁unused": 4384,
      "▁Bow": 4385,
      "avid": 4386,
      "ant": 4387,
      "▁nasty": 4388,
      "ribe": 4389,
      "FilePath": 4390,
      "USER": 4391,
      "URCE": 4392,
      "Neg": 4393,
      "ะ": 4394,
      "▁lod": 4395,
      "lord": 4396,
      "▁capt": 4397,
      "▁Fran": 4398,
      "]);": 4399,
      "▁russ": 4400,
      "idade": 4401,
      "src": 4402,
      "scripts": 4403,
      "▁тран": 4404,
      "Security": 4405,
      "LL": 4406,
      "uced": 4407,
      "▁Pop": 4408,
      "▁Asian": 4409,
      "▁Ball": 4410,
      "eding": 4411,
      "▁Anton": 4412,
      "▁buzz": 4413,
      "‏": 4414,
      "aling": 4415,
      "▁beloved": 4416,
      "OFF": 4417,
      "▁Pear": 4418,
      "▁Jour": 4419,
      "테": 4420,
      "虚": 4421,
      "\\\">": 4422,
      "▁referenties": 4423,
      "▁более": 4424,
      "▁Bas": 4425,
      "▁throughout": 4426,
      "▁theories": 4427,
      "▁comprehens": 4428,
      "▁ib": 4429,
      "▁prov": 4430,
      "▁Court": 4431,
      "uce": 4432,
      "▁approxim": 4433,
      "▁medical": 4434,
      "edish": 4435,
      "rection": 4436,
      "▁shoot": 4437,
      "▁laug": 4438,
      "▁March": 4439,
      "ví": 4440,
      "▁Besch": 4441,
      "WI": 4442,
      "бри": 4443,
      "▁attempted": 4444,
      "toolbar": 4445,
      "▁angular": 4446,
      "fd": 4447,
      "▁fiction": 4448,
      "▁justify": 4449,
      "DMA": 4450,
      "▁ersten": 4451,
      "aky": 4452,
      "idea": 4453,
      "ra": 4454,
      "宏": 4455,
      "Normal": 4456,
      "drive": 4457,
      "▁із": 4458,
      "rile": 4459,
      "update": 4460,
      "▁shouldn": 4461,
      "ENTER": 4462,
      "▁pound": 4463,
      "Serialize": 4464,
      "FA": 4465,
      "▁Dave": 4466,
      "▁affirm": 4467,
      "║": 4468,
      "▁prv": 4469,
      "zip": 4470,
      "ployee": 4471,
      "ォ": 4472,
      "▁memo": 4473,
      "▁assigned": 4474,
      "▁ż": 4475,
      "_+": 4476,
      "▁encoded": 4477,
      "▁Catal": 4478,
      "▁Cat": 4479,
      "▁gonna": 4480,
      "▁scen": 4481,
      "UL": 4482,
      "▁collapsed": 4483,
      "erg": 4484,
      "▁distinct": 4485,
      "焦": 4486,
      "erek": 4487,
      "▁frames": 4488,
      "▁static": 4489,
      "▁pump": 4490,
      "position": 4491,
      "▁Korea": 4492,
      "Product": 4493,
      "unächst": 4494,
      "▁ASSERT": 4495,
      "▁strength": 4496,
      "▁Taiwan": 4497,
      "▁restaurant": 4498,
      "▁famous": 4499,
      "▁Add": 4500,
      "Mix": 4501,
      "▁low": 4502,
      "▁Records": 4503,
      "wick": 4504,
      "▁drops": 4505,
      "▁Maryland": 4506,
      "UBLE": 4507,
      "More": 4508,
      "▁little": 4509,
      "▁pkt": 4510,
      "달": 4511,
      "▁buck": 4512,
      "▁programming": 4513,
      "▁library": 4514,
      "므": 4515,
      "▁Sing": 4516,
      "▁Poll": 4517,
      "Al": 4518,
      "visible": 4519,
      "bye": 4520,
      "ḫ": 4521,
      "zione": 4522,
      "▁Wr": 4523,
      "Payment": 4524,
      "▁Target": 4525,
      "metry": 4526,
      "▁noviembre": 4527,
      "▁steel": 4528,
      "略": 4529,
      "▁emails": 4530,
      "▁implemented": 4531,
      "▁meetings": 4532,
      "PASS": 4533,
      "кі": 4534,
      "urn": 4535,
      "▁Emb": 4536,
      "▁representations": 4537,
      "or": 4538,
      "▁maxim": 4539,
      "Ad": 4540,
      "íst": 4541,
      "글": 4542,
      "非": 4543,
      "oose": 4544,
      "▁taking": 4545,
      "▁since": 4546,
      "ј": 4547,
      "▁journalists": 4548,
      "generated": 4549,
      "γ": 4550,
      "Metric": 4551,
      "ilor": 4552,
      "▁который": 4553,
      "Order": 4554,
      "ria": 4555,
      "¡": 4556,
      "aking": 4557,
      "▁hired": 4558,
      "▁washed": 4559,
      "stru": 4560,
      "▁pizza": 4561,
      "▁foundation": 4562,
      "Dit": 4563,
      "emperaturen": 4564,
      "▁kil": 4565,
      "▁dimensions": 4566,
      "▁fits": 4567,
      "▁bord": 4568,
      "RM": 4569,
      "ales": 4570,
      "се": 4571,
      "▁пр": 4572,
      "▁proceedings": 4573,
      "א": 4574,
      "▁ост": 4575,
      "▁dign": 4576,
      "uspend": 4577,
      "▁Duke": 4578,
      "▁Lee": 4579,
      "▁Films": 4580,
      "ENV": 4581,
      "inity": 4582,
      "▁liber": 4583,
      "▁attempting": 4584,
      "▁Ng": 4585,
      "▁rally": 4586,
      "neg": 4587,
      "footer": 4588,
      "▁Soviet": 4589,
      "CSS": 4590,
      "ˆ": 4591,
      "Gener": 4592,
      "VA": 4593,
      "gom": 4594,
      "хра": 4595,
      "▁especially": 4596,
      "etto": 4597,
      "▁rom": 4598,
      "ACT": 4599,
      "▁französ": 4600,
      "▁associ": 4601,
      "▁huvud": 4602,
      "тів": 4603,
      "ennen": 4604,
      "ancellationToken": 4605,
      "tokens": 4606,
      "▁Nev": 4607,
      "▁accounts": 4608,
      "▁gravity": 4609,
      "շ": 4610,
      "iom": 4611,
      "▁мест": 4612,
      "▁antes": 4613,
      "▁Ez": 4614,
      "▁Live": 4615,
      "yst": 4616,
      "▁Base": 4617,
      "▁suit": 4618,
      "тре": 4619,
      "izar": 4620,
      "▁boxes": 4621,
      "▁din": 4622,
      "▁побе": 4623,
      "▁вла": 4624,
      "▁Negro": 4625,
      "Func": 4626,
      "Getter": 4627,
      "▁Cel": 4628,
      "▁NO": 4629,
      "MSM": 4630,
      "▁nurs": 4631,
      "éc": 4632,
      "▁\"%": 4633,
      "ja": 4634,
      "lege": 4635,
      "enue": 4636,
      "ENO": 4637,
      "▁does": 4638,
      "▁Perhaps": 4639,
      "パ": 4640,
      "figure": 4641,
      "BOX": 4642,
      "iii": 4643,
      "ক": 4644,
      "sters": 4645,
      "твер": 4646,
      "▁Mouse": 4647,
      "stant": 4648,
      "▁Ц": 4649,
      "skich": 4650,
      "cls": 4651,
      "Notify": 4652,
      "▁apart": 4653,
      "(\"\");": 4654,
      "isan": 4655,
      "▁achieve": 4656,
      "Flow": 4657,
      "▁dock": 4658,
      "priority": 4659,
      "indent": 4660,
      "Lean": 4661,
      "management": 4662,
      "glich": 4663,
      "orious": 4664,
      "action": 4665,
      "Trace": 4666,
      "▁verified": 4667,
      "BUS": 4668,
      "rupted": 4669,
      "▁Lit": 4670,
      "▁much": 4671,
      "母": 4672,
      "▁diameter": 4673,
      "▁inf": 4674,
      "▁tin": 4675,
      "Please": 4676,
      "帝": 4677,
      "▁Sol": 4678,
      "▁clothing": 4679,
      "▁сбор": 4680,
      "▁erfolg": 4681,
      "▁slot": 4682,
      "ultan": 4683,
      "▁televis": 4684,
      "ormal": 4685,
      "좋": 4686,
      "тельно": 4687,
      "交": 4688,
      "▁harmful": 4689,
      "Student": 4690,
      "Algorithm": 4691,
      "VALID": 4692,
      "▁afterwards": 4693,
      "infl": 4694,
      "▁negative": 4695,
      "making": 4696,
      "▁celebrate": 4697,
      "▁WARRANTIES": 4698,
      "▁го": 4699,
      "▁Liber": 4700,
      "▁Pers": 4701,
      "Cond": 4702,
      "ellt": 4703,
      "▁discret": 4704,
      "Loading": 4705,
      "‍": 4706,
      "▁inc": 4707,
      "▁Death": 4708,
      "apan": 4709,
      "▁snapshot": 4710,
      "▁lighter": 4711,
      "▁locale": 4712,
      "Promise": 4713,
      "က": 4714,
      "mission": 4715,
      "▁lev": 4716,
      "▁Cameron": 4717,
      "▁espec": 4718,
      "preter": 4719,
      "▁ne": 4720,
      "▁compos": 4721,
      "∂": 4722,
      "▁revealed": 4723,
      "▁strictly": 4724,
      "▁kin": 4725,
      "効": 4726,
      "▁Р": 4727,
      "Д": 4728,
      "▁sudd": 4729,
      "|---": 4730,
      "▁коми": 4731,
      "ook": 4732,
      "tring": 4733,
      "▁<?": 4734,
      "ia": 4735,
      "毛": 4736,
      "▁velocity": 4737,
      "▁autom": 4738,
      "ň": 4739,
      "ynchron": 4740,
      "▁gig": 4741,
      "{{": 4742,
      "ast": 4743,
      "ั": 4744,
      "학": 4745,
      "StackTrace": 4746,
      "ስ": 4747,
      "pton": 4748,
      "........": 4749,
      "▁nod": 4750,
      "serialize": 4751,
      "COMMAND": 4752,
      "🇸": 4753,
      "xml": 4754,
      "ituted": 4755,
      "▁lawyers": 4756,
      "▁bo": 4757,
      "▁rhs": 4758,
      "食": 4759,
      "▁upper": 4760,
      "amination": 4761,
      "uv": 4762,
      "nitt": 4763,
      "WO": 4764,
      "ires": 4765,
      "▁Soph": 4766,
      "▁fetch": 4767,
      "CONT": 4768,
      "▁personality": 4769,
      "Foot": 4770,
      "▁brought": 4771,
      "▁eleven": 4772,
      "iz": 4773,
      "ᴏ": 4774,
      "process": 4775,
      "ood": 4776,
      "quer": 4777,
      "ʋ": 4778,
      "eu": 4779,
      "ience": 4780,
      "amps": 4781,
      "▁ок": 4782,
      "тен": 4783,
      "<'": 4784,
      "▁forest": 4785,
      "▁minister": 4786,
      "▁voice": 4787,
      "▁Cru": 4788,
      "▁disrupt": 4789,
      "Has": 4790,
      "TY": 4791,
      "▁Shar": 4792,
      "parameter": 4793,
      "phere": 4794,
      "amazonaws": 4795,
      "▁?>": 4796,
      "▁dej": 4797,
      "▁example": 4798,
      "▁klik": 4799,
      "▁assertThat": 4800,
      "[:": 4801,
      "Balance": 4802,
      "▁Valid": 4803,
      "▁grant": 4804,
      "Ctx": 4805,
      "▁propose": 4806,
      "▁ú": 4807,
      "▁ost": 4808,
      "rightarrow": 4809,
      "▁NASA": 4810,
      "▁полу": 4811,
      "recogn": 4812,
      "▁delivered": 4813,
      "▁sog": 4814,
      "▁Security": 4815,
      "People": 4816,
      "▁differential": 4817,
      "▁\"\"": 4818,
      "▁lasted": 4819,
      "Tuple": 4820,
      "ute": 4821,
      "▁attacked": 4822,
      "yes": 4823,
      "Notification": 4824,
      "ferences": 4825,
      "ă": 4826,
      "Links": 4827,
      "▁avec": 4828,
      "дом": 4829,
      "▁distribute": 4830,
      "▁commune": 4831,
      "ո": 4832,
      "▁Festival": 4833,
      "hill": 4834,
      "catalog": 4835,
      "▁missions": 4836,
      "Wall": 4837,
      "▁decade": 4838,
      "Void": 4839,
      "▁Spirit": 4840,
      "BUG": 4841,
      "pars": 4842,
      "▁fine": 4843,
      "▁correl": 4844,
      "Who": 4845,
      "IRQ": 4846,
      "▁intelligent": 4847,
      "▁Po": 4848,
      "▁membr": 4849,
      "≡": 4850,
      "▁[\"": 4851,
      "▁Jes": 4852,
      "тся": 4853,
      "ao": 4854,
      "iał": 4855,
      "▁crush": 4856,
      "wr": 4857,
      "▁males": 4858,
      "codec": 4859,
      "Cor": 4860,
      "ral": 4861,
      "▁Gra": 4862,
      "ément": 4863,
      "tests": 4864,
      "▁blacks": 4865,
      "▁President": 4866,
      "▁engage": 4867,
      "▁Jerry": 4868,
      "▁relie": 4869,
      "▁cust": 4870,
      "▁trust": 4871,
      "äs": 4872,
      "year": 4873,
      "▁hydro": 4874,
      "acer": 4875,
      "Utilities": 4876,
      "▁determines": 4877,
      "▁roads": 4878,
      "▁challenge": 4879,
      "▁stuff": 4880,
      "enabled": 4881,
      "😢": 4882,
      "▁Cass": 4883,
      "▁involving": 4884,
      "▁km": 4885,
      "Nothing": 4886,
      "▁Укра": 4887,
      "葉": 4888,
      "DIP": 4889,
      "벤": 4890,
      "户": 4891,
      "▁cleaning": 4892,
      "After": 4893,
      "▁manage": 4894,
      "eting": 4895,
      "▁king": 4896,
      "Ins": 4897,
      "▁honom": 4898,
      "▁Jorge": 4899,
      "ocz": 4900,
      "▁där": 4901,
      "▁mie": 4902,
      "期": 4903,
      "reply": 4904,
      "▁unders": 4905,
      "航": 4906,
      "▁stag": 4907,
      "▁funded": 4908,
      "▁turb": 4909,
      "▁Peter": 4910,
      "▁clubs": 4911,
      "mercial": 4912,
      "測": 4913,
      "▁Emily": 4914,
      "▁HO": 4915,
      "▁capit": 4916,
      "▁Canad": 4917,
      "Print": 4918,
      "email": 4919,
      "ध": 4920,
      "种": 4921,
      "antly": 4922,
      "COL": 4923,
      "ître": 4924,
      "▁ó": 4925,
      "▁suddenly": 4926,
      "▁copies": 4927,
      "▁hallway": 4928,
      "▁divorce": 4929,
      "рии": 4930,
      "obal": 4931,
      "Namespace": 4932,
      "▁Premier": 4933,
      "тий": 4934,
      "prints": 4935,
      "Backend": 4936,
      "icional": 4937,
      "ITE": 4938,
      "per": 4939,
      "град": 4940,
      "▁expected": 4941,
      "level": 4942,
      "▁Pac": 4943,
      "▁relative": 4944,
      "('./": 4945,
      "dir": 4946,
      "শ": 4947,
      "chos": 4948,
      "agog": 4949,
      "▁\");": 4950,
      "拷": 4951,
      "ே": 4952,
      "▁сентября": 4953,
      "▁anger": 4954,
      "}).": 4955,
      "ф": 4956,
      "Parent": 4957,
      "quality": 4958,
      "})$": 4959,
      "Direction": 4960,
      "ges": 4961,
      "▁writes": 4962,
      "iti": 4963,
      "▁variables": 4964,
      "gon": 4965,
      "▁Hamb": 4966,
      "verage": 4967,
      "wi": 4968,
      "▁myself": 4969,
      "▁means": 4970,
      "▁chapter": 4971,
      "Lo": 4972,
      "▁Hö": 4973,
      "mapping": 4974,
      "arians": 4975,
      "▁wealth": 4976,
      "▁Mais": 4977,
      "duration": 4978,
      "▁database": 4979,
      "▁wind": 4980,
      "▁kall": 4981,
      "ours": 4982,
      "▁Els": 4983,
      "វ": 4984,
      "▁counsel": 4985,
      "▁including": 4986,
      "▁list": 4987,
      "Design": 4988,
      "▁actually": 4989,
      "ismus": 4990,
      "▁mong": 4991,
      "▁BO": 4992,
      "▁slower": 4993,
      "▁vibr": 4994,
      "😂": 4995,
      "ulf": 4996,
      "▁Standard": 4997,
      "pection": 4998,
      "▁conduct": 4999,
      "師": 5000,
      "▁mer": 5001,
      "ensing": 5002,
      "▁Garden": 5003,
      "Bot": 5004,
      "▁Cancer": 5005,
      "ত": 5006,
      "▁deep": 5007,
      "▁realistic": 5008,
      "▁location": 5009,
      "ographer": 5010,
      "▁compute": 5011,
      "▁hi": 5012,
      "▁royal": 5013,
      "rangle": 5014,
      "▁tourist": 5015,
      "惠": 5016,
      "▁Leo": 5017,
      "▁sequence": 5018,
      "▁eines": 5019,
      "uno": 5020,
      "▁converted": 5021,
      "▁often": 5022,
      "gr": 5023,
      "▁stairs": 5024,
      "Password": 5025,
      "▁Brend": 5026,
      "▁nothing": 5027,
      "▁During": 5028,
      "▁components": 5029,
      "▁sip": 5030,
      "▁inspired": 5031,
      "▁editorial": 5032,
      "Pair": 5033,
      "▁Н": 5034,
      "▁edge": 5035,
      "▁Scotland": 5036,
      "▁viagra": 5037,
      "pace": 5038,
      "▁Director": 5039,
      "▁evt": 5040,
      "诸": 5041,
      "존": 5042,
      "▁yourself": 5043,
      "現": 5044,
      "agonal": 5045,
      "ieties": 5046,
      ")->": 5047,
      "lagen": 5048,
      "▁agreed": 5049,
      "/*!": 5050,
      "ashi": 5051,
      "▁flames": 5052,
      "\"):": 5053,
      "▁GP": 5054,
      "▁bapt": 5055,
      "pher": 5056,
      "Hard": 5057,
      "4": 5058,
      "scroll": 5059,
      "▁rise": 5060,
      "▁hits": 5061,
      "ius": 5062,
      "좌": 5063,
      "▁Invalid": 5064,
      "etric": 5065,
      "EXIT": 5066,
      "olent": 5067,
      "巨": 5068,
      "/{": 5069,
      "\"\"\"": 5070,
      "▁rul": 5071,
      "▁Safety": 5072,
      "": 5073,
      "▁withdrawal": 5074,
      "elasticsearch": 5075,
      "anya": 5076,
      "▁thank": 5077,
      "▁поло": 5078,
      "']);": 5079,
      "▁gra": 5080,
      "▁yes": 5081,
      "West": 5082,
      "oles": 5083,
      "▁fleet": 5084,
      "annt": 5085,
      "LOT": 5086,
      "Dir": 5087,
      "▁gover": 5088,
      "▁obten": 5089,
      "aware": 5090,
      "ense": 5091,
      "镜": 5092,
      "pn": 5093,
      "▁solve": 5094,
      "▁Quick": 5095,
      "▁тех": 5096,
      "▁contempl": 5097,
      "Tor": 5098,
      "ья": 5099,
      "▁larger": 5100,
      "ipe": 5101,
      "▁aapt": 5102,
      "sg": 5103,
      "▁cock": 5104,
      "/.": 5105,
      "▁a": 5106,
      "vel": 5107,
      "끝": 5108,
      "▁immigr": 5109,
      "wer": 5110,
      "love": 5111,
      "▁wrong": 5112,
      "▁identity": 5113,
      "▁nie": 5114,
      "▁Reddit": 5115,
      "💜": 5116,
      "Une": 5117,
      "Net": 5118,
      "ele": 5119,
      "after": 5120,
      "Seconds": 5121,
      "▁ranked": 5122,
      "Surface": 5123,
      "IP": 5124,
      "▁ident": 5125,
      "▁er": 5126,
      "▁song": 5127,
      "ћи": 5128,
      "ulas": 5129,
      "],": 5130,
      "▁dramatically": 5131,
      "▁prices": 5132,
      "Compar": 5133,
      "'>": 5134,
      "START": 5135,
      "你": 5136,
      "▁declar": 5137,
      "boost": 5138,
      "▁Latin": 5139,
      "▁payment": 5140,
      "▁má": 5141,
      "+=": 5142,
      "▁un": 5143,
      "nehmen": 5144,
      "Gap": 5145,
      "▁дея": 5146,
      "SSION": 5147,
      "Compiler": 5148,
      "vol": 5149,
      "▁absolute": 5150,
      "▁него": 5151,
      "▁std": 5152,
      "▁exercises": 5153,
      "▁lik": 5154,
      "▁ка": 5155,
      "▁changes": 5156,
      "Ю": 5157,
      "▁responsibility": 5158,
      "▁civil": 5159,
      "▁keyboard": 5160,
      "▁Bund": 5161,
      "▁lessons": 5162,
      "TOKEN": 5163,
      "▁ending": 5164,
      "want": 5165,
      "oll": 5166,
      "残": 5167,
      "▁correctly": 5168,
      "▁nog": 5169,
      "ু": 5170,
      "▁foam": 5171,
      "rock": 5172,
      "▁Peg": 5173,
      "yp": 5174,
      "▁tent": 5175,
      "▁summon": 5176,
      "▁ek": 5177,
      "▁USA": 5178,
      "미": 5179,
      "AS": 5180,
      "▁comprom": 5181,
      "ments": 5182,
      "▁temporary": 5183,
      "▁Jak": 5184,
      "▁thread": 5185,
      "Invalid": 5186,
      "▁grid": 5187,
      "PI": 5188,
      "▁anys": 5189,
      "▁fu": 5190,
      "▁chapters": 5191,
      "▁err": 5192,
      "▁sampling": 5193,
      "▁Trump": 5194,
      "▁value": 5195,
      "▁bor": 5196,
      "▁Wis": 5197,
      "异": 5198,
      "=\"{{": 5199,
      "▁Ont": 5200,
      "▁arms": 5201,
      "xi": 5202,
      "▁sail": 5203,
      "ijd": 5204,
      "▁Wilson": 5205,
      "rade": 5206,
      "ts": 5207,
      "▁kinds": 5208,
      "four": 5209,
      "▁ass": 5210,
      "▁interested": 5211,
      "done": 5212,
      "含": 5213,
      "▁$(\\": 5214,
      "▁behave": 5215,
      "reb": 5216,
      "▁bags": 5217,
      "графи": 5218,
      "_,": 5219,
      "drop": 5220,
      "▁Wood": 5221,
      "ii": 5222,
      "▁wages": 5223,
      "ホ": 5224,
      "功": 5225,
      "▁evangel": 5226,
      "▁Lars": 5227,
      "ней": 5228,
      "▁TEST": 5229,
      "hythm": 5230,
      "▁infant": 5231,
      "▁Lot": 5232,
      "▁Jr": 5233,
      "Setup": 5234,
      "▁jag": 5235,
      "\"));": 5236,
      "Ty": 5237,
      "▁Estados": 5238,
      "▁Jay": 5239,
      "▁leaf": 5240,
      "IsNull": 5241,
      "赞": 5242,
      "anson": 5243,
      "▁makeup": 5244,
      "plicit": 5245,
      "間": 5246,
      "umen": 5247,
      "tcx": 5248,
      "▁Pos": 5249,
      "▁above": 5250,
      "imate": 5251,
      "▁autor": 5252,
      "ція": 5253,
      "▁par": 5254,
      "▁peas": 5255,
      "▁taken": 5256,
      "▁pilots": 5257,
      "陵": 5258,
      "▁mistaken": 5259,
      "▁distributions": 5260,
      "코": 5261,
      "NG": 5262,
      "printf": 5263,
      "▁registr": 5264,
      "anced": 5265,
      "▁bajo": 5266,
      "chter": 5267,
      "▁filed": 5268,
      "▁Major": 5269,
      "Types": 5270,
      "upt": 5271,
      "稿": 5272,
      "data": 5273,
      "▁ham": 5274,
      "▁mostly": 5275,
      "▁Kamp": 5276,
      "handle": 5277,
      "▁Event": 5278,
      "창": 5279,
      "чно": 5280,
      "▁Sal": 5281,
      "ission": 5282,
      "liv": 5283,
      "▁stab": 5284,
      "▁frequency": 5285,
      "석": 5286,
      "Fig": 5287,
      "▁exotic": 5288,
      "▁derive": 5289,
      "▁tc": 5290,
      "▁этом": 5291,
      "Records": 5292,
      "💯": 5293,
      "▁GL": 5294,
      "▁{}": 5295,
      "Station": 5296,
      "istas": 5297,
      "▁safe": 5298,
      "FMT": 5299,
      "lage": 5300,
      "aceae": 5301,
      "}&": 5302,
      "▁reaction": 5303,
      "<?>": 5304,
      "▁struggles": 5305,
      "▁vic": 5306,
      "itle": 5307,
      "果": 5308,
      ")[": 5309,
      "▁Han": 5310,
      "article": 5311,
      "ros": 5312,
      "▁frowned": 5313,
      "})\\": 5314,
      "ARCH": 5315,
      "▁recognised": 5316,
      "▁capabilities": 5317,
      "ta": 5318,
      "▁failing": 5319,
      "▁результа": 5320,
      "執": 5321,
      "▁category": 5322,
      "aur": 5323,
      "▁Fire": 5324,
      "▁extract": 5325,
      "insi": 5326,
      "▁counts": 5327,
      "overty": 5328,
      "obre": 5329,
      "intel": 5330,
      "┬": 5331,
      "▁mines": 5332,
      "▁italien": 5333,
      "period": 5334,
      "편": 5335,
      "▁impat": 5336,
      "▁limit": 5337,
      "▁science": 5338,
      "▁refers": 5339,
      "replace": 5340,
      "▁soccer": 5341,
      "ṭ": 5342,
      "ört": 5343,
      "▁▁▁▁▁▁▁▁▁▁": 5344,
      "阶": 5345,
      "warz": 5346,
      "⊙": 5347,
      "▁Et": 5348,
      "Version": 5349,
      "hat": 5350,
      "▁questions": 5351,
      "▁Shaw": 5352,
      "headers": 5353,
      "ѐ": 5354,
      "World": 5355,
      "rooms": 5356,
      "▁ainsi": 5357,
      "▁народ": 5358,
      "舞": 5359,
      "▁UINT": 5360,
      "派": 5361,
      "▁nons": 5362,
      "▁Random": 5363,
      "*": 5364,
      "▁pose": 5365,
      "▁request": 5366,
      "▁context": 5367,
      "▁temps": 5368,
      "▁Mediterr": 5369,
      "marks": 5370,
      "amine": 5371,
      "▁mitt": 5372,
      "▁{},": 5373,
      "ment": 5374,
      "▁насеље": 5375,
      "CPU": 5376,
      "avan": 5377,
      "ode": 5378,
      "тал": 5379,
      "▁reform": 5380,
      "▁episode": 5381,
      "▁Page": 5382,
      "报": 5383,
      "▁Vec": 5384,
      "▁afterward": 5385,
      "▁interactive": 5386,
      ")_{": 5387,
      "▁Pictures": 5388,
      "▁Este": 5389,
      "▁ско": 5390,
      "▁дру": 5391,
      "▁fill": 5392,
      "재": 5393,
      "▁Den": 5394,
      "▁—": 5395,
      "Reset": 5396,
      "▁bef": 5397,
      "Green": 5398,
      "~$": 5399,
      "()).": 5400,
      "▁beneath": 5401,
      "▁Sciences": 5402,
      "Dataset": 5403,
      "奖": 5404,
      "▁Data": 5405,
      "exception": 5406,
      "vals": 5407,
      "ante": 5408,
      "▁ih": 5409,
      "kes": 5410,
      "▁ва": 5411,
      "荐": 5412,
      "⠄": 5413,
      "▁Zent": 5414,
      "ioso": 5415,
      "▁invoke": 5416,
      "▁creative": 5417,
      "▁board": 5418,
      "▁Years": 5419,
      "▁ide": 5420,
      "▁shed": 5421,
      "▁webs": 5422,
      "▁This": 5423,
      "勝": 5424,
      "▁delay": 5425,
      "origin": 5426,
      "▁For": 5427,
      "▁rather": 5428,
      "?;": 5429,
      "lauf": 5430,
      "▁Week": 5431,
      "▁Conservative": 5432,
      "।": 5433,
      "lin": 5434,
      "y": 5435,
      "opp": 5436,
      "▁Roche": 5437,
      "터": 5438,
      "節": 5439,
      "아": 5440,
      "▁adequate": 5441,
      "▁on": 5442,
      "▁Ку": 5443,
      "fore": 5444,
      "▁owners": 5445,
      "▁fen": 5446,
      "▁senses": 5447,
      "Entry": 5448,
      "xE": 5449,
      "函": 5450,
      "▁resort": 5451,
      "note": 5452,
      "▁Vir": 5453,
      "ret": 5454,
      "letter": 5455,
      "▁growing": 5456,
      "ival": 5457,
      "▁'../": 5458,
      "abc": 5459,
      "цен": 5460,
      "▁introduce": 5461,
      "▁camp": 5462,
      "\"],": 5463,
      "▁obligation": 5464,
      "▁lb": 5465,
      "ript": 5466,
      "▁competed": 5467,
      "LI": 5468,
      "▁Kentucky": 5469,
      "▁succeeded": 5470,
      "hor": 5471,
      "▁betting": 5472,
      "irts": 5473,
      "▁Lesser": 5474,
      "▁Geme": 5475,
      "▁NE": 5476,
      "Less": 5477,
      "▁fighters": 5478,
      "äre": 5479,
      "▁ic": 5480,
      "▁increment": 5481,
      "ocked": 5482,
      "▁я": 5483,
      "च": 5484,
      "目": 5485,
      "▁things": 5486,
      "▁prze": 5487,
      "▁vendor": 5488,
      "▁encourage": 5489,
      "▁north": 5490,
      "王": 5491,
      "▁бе": 5492,
      "arten": 5493,
      "▁Ti": 5494,
      "▁disput": 5495,
      "▁delegate": 5496,
      "▁electric": 5497,
      "▁Johannes": 5498,
      "堂": 5499,
      "HAS": 5500,
      "▁TODO": 5501,
      "gew": 5502,
      "▁Du": 5503,
      "Comment": 5504,
      "▁Or": 5505,
      "举": 5506,
      "▁outs": 5507,
      "▁operations": 5508,
      "▁str": 5509,
      "▁lesson": 5510,
      "album": 5511,
      "▁Article": 5512,
      "VM": 5513,
      "▁forme": 5514,
      "▁před": 5515,
      "▁köz": 5516,
      "random": 5517,
      "▁defaults": 5518,
      "▁ss": 5519,
      "&#": 5520,
      "ා": 5521,
      "}'": 5522,
      "▁klub": 5523,
      "life": 5524,
      "▁они": 5525,
      "▁tone": 5526,
      "ious": 5527,
      "Previous": 5528,
      "anchor": 5529,
      "备": 5530,
      "▁obtaining": 5531,
      "▁Menschen": 5532,
      "▁standards": 5533,
      "toEqual": 5534,
      "▁deel": 5535,
      "пи": 5536,
      "▁Covid": 5537,
      "ذ": 5538,
      "😁": 5539,
      "▁hen": 5540,
      "rawn": 5541,
      "anqu": 5542,
      "jQuery": 5543,
      "▁joining": 5544,
      "da": 5545,
      "ican": 5546,
      "▁producing": 5547,
      "°": 5548,
      "Current": 5549,
      "´": 5550,
      "▁Angel": 5551,
      "▁ped": 5552,
      "▁bind": 5553,
      "▁Button": 5554,
      "▁rugby": 5555,
      "citep": 5556,
      "▁emerging": 5557,
      "alf": 5558,
      "▁settled": 5559,
      "灰": 5560,
      "aupt": 5561,
      "ridge": 5562,
      "oire": 5563,
      "Γ": 5564,
      "▁Hoff": 5565,
      "=\"\"": 5566,
      "▁brit": 5567,
      "▁celebration": 5568,
      "▁statue": 5569,
      "关": 5570,
      "ells": 5571,
      "▁enjoying": 5572,
      "YPE": 5573,
      "▁Hend": 5574,
      "▁charge": 5575,
      "with": 5576,
      "閉": 5577,
      "Content": 5578,
      "▁insert": 5579,
      "▁Was": 5580,
      "▁proposed": 5581,
      "▁sou": 5582,
      "‚": 5583,
      "▁assembly": 5584,
      "ust": 5585,
      "sign": 5586,
      "▁forests": 5587,
      "▁exhibit": 5588,
      "▁look": 5589,
      "ោ": 5590,
      "Н": 5591,
      "み": 5592,
      "▁jar": 5593,
      "▁sell": 5594,
      "▁Ј": 5595,
      "▁fprintf": 5596,
      "langle": 5597,
      "▁ARE": 5598,
      "追": 5599,
      "лу": 5600,
      "▁sage": 5601,
      "▁Gl": 5602,
      "stell": 5603,
      "历": 5604,
      "ogene": 5605,
      "▁pun": 5606,
      "Buffer": 5607,
      "▁designing": 5608,
      "▁awkward": 5609,
      "-,": 5610,
      "MESSAGE": 5611,
      "▁loc": 5612,
      "▁refer": 5613,
      "▁desk": 5614,
      "▁compan": 5615,
      "▁parish": 5616,
      "▁usb": 5617,
      "▁lp": 5618,
      "▁nuclear": 5619,
      "▁continuously": 5620,
      "▁&(": 5621,
      "USED": 5622,
      "▁admitted": 5623,
      "court": 5624,
      "▁Place": 5625,
      "▁poc": 5626,
      "▁asympt": 5627,
      "ić": 5628,
      "甘": 5629,
      "Special": 5630,
      "vens": 5631,
      "kov": 5632,
      "uni": 5633,
      "smithy": 5634,
      "kee": 5635,
      "▁wrote": 5636,
      "▁Spec": 5637,
      "Monitor": 5638,
      "▁brave": 5639,
      "▁Вер": 5640,
      ")))": 5641,
      "▁examples": 5642,
      "\u0010": 5643,
      "nesday": 5644,
      "▁meeting": 5645,
      "̌": 5646,
      "Response": 5647,
      "group": 5648,
      "very": 5649,
      "й": 5650,
      "▁учи": 5651,
      "▁limits": 5652,
      "Chain": 5653,
      "intent": 5654,
      "심": 5655,
      "bian": 5656,
      "▁picks": 5657,
      "▁Pennsylvania": 5658,
      "▁Cr": 5659,
      "Tools": 5660,
      "her": 5661,
      "▁Walk": 5662,
      "Literal": 5663,
      "телем": 5664,
      "치": 5665,
      "▁rushing": 5666,
      "ielte": 5667,
      "▁Really": 5668,
      "▁mere": 5669,
      "▁Struct": 5670,
      "▁Dub": 5671,
      "services": 5672,
      "shire": 5673,
      ")).": 5674,
      "▁beard": 5675,
      "--": 5676,
      "✓": 5677,
      "Make": 5678,
      "ә": 5679,
      "pass": 5680,
      "▁dice": 5681,
      "▁oder": 5682,
      "▁Ohio": 5683,
      "▁affairs": 5684,
      "üng": 5685,
      "▁Span": 5686,
      "ged": 5687,
      "▁difference": 5688,
      "▁Ra": 5689,
      "Mo": 5690,
      "▁hus": 5691,
      "▁Option": 5692,
      "▁hate": 5693,
      "─": 5694,
      "▁Lim": 5695,
      "USH": 5696,
      "▁leads": 5697,
      "▁>=": 5698,
      "▁Birmingham": 5699,
      "vod": 5700,
      "▁medications": 5701,
      "▁jazz": 5702,
      "▁gear": 5703,
      "▁_(": 5704,
      "ider": 5705,
      "Pages": 5706,
      "▁easy": 5707,
      "▁Hunter": 5708,
      "anner": 5709,
      "▁Cris": 5710,
      "া": 5711,
      "iane": 5712,
      "raham": 5713,
      "▁advers": 5714,
      "▁crossing": 5715,
      "▁primitive": 5716,
      "pto": 5717,
      "erv": 5718,
      "▁раз": 5719,
      "ieren": 5720,
      "▁common": 5721,
      "▁fer": 5722,
      "▁Bundes": 5723,
      "▁Effect": 5724,
      "tf": 5725,
      "ylan": 5726,
      "iches": 5727,
      "▁diagonal": 5728,
      "▁spark": 5729,
      "两": 5730,
      "▁cord": 5731,
      "▁television": 5732,
      "orders": 5733,
      "вали": 5734,
      "▁swimming": 5735,
      "占": 5736,
      "Mu": 5737,
      "▁tendency": 5738,
      "[_": 5739,
      "stock": 5740,
      "žen": 5741,
      "、": 5742,
      "▁Nicole": 5743,
      "getInstance": 5744,
      "▁pod": 5745,
      "atri": 5746,
      "▁mű": 5747,
      "▁over": 5748,
      "arly": 5749,
      "▁prote": 5750,
      "double": 5751,
      "▁ві": 5752,
      "▁iOS": 5753,
      "Ка": 5754,
      "▁segments": 5755,
      "enn": 5756,
      "Of": 5757,
      "![": 5758,
      "般": 5759,
      "▁об": 5760,
      "ITH": 5761,
      "▁G": 5762,
      "▁diagram": 5763,
      "▁dy": 5764,
      "▁!!": 5765,
      "aba": 5766,
      "Grid": 5767,
      "▁lapt": 5768,
      "▁scripts": 5769,
      "▁begann": 5770,
      "▁groups": 5771,
      "▁окт": 5772,
      "ē": 5773,
      "▁altered": 5774,
      "IENT": 5775,
      "лове": 5776,
      "▁startup": 5777,
      "▁kun": 5778,
      "strict": 5779,
      "▁fever": 5780,
      "읽": 5781,
      "▁prescription": 5782,
      "ття": 5783,
      "LE": 5784,
      "eau": 5785,
      "mbre": 5786,
      "▁wagon": 5787,
      "bey": 5788,
      "Relative": 5789,
      "orts": 5790,
      "▁guarantee": 5791,
      "ctor": 5792,
      "assets": 5793,
      "lette": 5794,
      "▁Ern": 5795,
      "▁seed": 5796,
      "▁Х": 5797,
      "stud": 5798,
      "▁sing": 5799,
      "▁ske": 5800,
      "▁ambitious": 5801,
      "ito": 5802,
      "yan": 5803,
      "Slider": 5804,
      "FER": 5805,
      "▁imagin": 5806,
      "apy": 5807,
      "💕": 5808,
      "▁resistance": 5809,
      "path": 5810,
      "▁fis": 5811,
      "basic": 5812,
      "▁ratings": 5813,
      "ren": 5814,
      "▁however": 5815,
      "▁dst": 5816,
      "▁перед": 5817,
      "▁suspension": 5818,
      "▁▁▁▁▁▁▁▁▁▁▁▁▁▁▁▁": 5819,
      "▁representing": 5820,
      "▁sede": 5821,
      "▁Thailand": 5822,
      "▁subtle": 5823,
      "▁continu": 5824,
      "▁taste": 5825,
      "ki": 5826,
      "▁Marian": 5827,
      "infty": 5828,
      "sum": 5829,
      "▁signs": 5830,
      "오": 5831,
      "tau": 5832,
      "oday": 5833,
      "oku": 5834,
      "lij": 5835,
      "钮": 5836,
      "rivate": 5837,
      "SA": 5838,
      "▁hast": 5839,
      "▁prove": 5840,
      "irlines": 5841,
      "ベ": 5842,
      "▁diagnostic": 5843,
      "▁tcp": 5844,
      "atti": 5845,
      "tensor": 5846,
      "▁decides": 5847,
      "▁separately": 5848,
      "ained": 5849,
      "™": 5850,
      "▁zijn": 5851,
      "▁investments": 5852,
      "▁font": 5853,
      "▁Costa": 5854,
      "": 5855,
      "▁después": 5856,
      "▁accompany": 5857,
      "只": 5858,
      "('.": 5859,
      "tilde": 5860,
      "М": 5861,
      "▁pens": 5862,
      "▁Bou": 5863,
      "inceton": 5864,
      "ENUM": 5865,
      "▁printed": 5866,
      "éta": 5867,
      "▁Spiel": 5868,
      "Mass": 5869,
      "мон": 5870,
      "▁terrain": 5871,
      "Static": 5872,
      "essage": 5873,
      "▁estar": 5874,
      "▁main": 5875,
      "eqn": 5876,
      "colored": 5877,
      "▁Lisa": 5878,
      "研": 5879,
      "无": 5880,
      "▁imp": 5881,
      "elta": 5882,
      "▁Росси": 5883,
      "*),": 5884,
      "▁Often": 5885,
      "ated": 5886,
      "▁bar": 5887,
      "лина": 5888,
      ":\"": 5889,
      "rolling": 5890,
      "▁races": 5891,
      "▁system": 5892,
      "Margin": 5893,
      "uese": 5894,
      "结": 5895,
      "Ц": 5896,
      "▁def": 5897,
      "▁lease": 5898,
      "▁fi": 5899,
      "롤": 5900,
      "▁shame": 5901,
      "INVALID": 5902,
      "++++": 5903,
      "fer": 5904,
      "▁Other": 5905,
      "▁panic": 5906,
      "Dead": 5907,
      "raph": 5908,
      "▁Count": 5909,
      "áz": 5910,
      "cursor": 5911,
      "▁$(\"#": 5912,
      "▁Miller": 5913,
      "▁Whether": 5914,
      "▁urg": 5915,
      "▁Oak": 5916,
      "▁inch": 5917,
      "nim": 5918,
      "ɐ": 5919,
      "▁restoration": 5920,
      "Day": 5921,
      "Something": 5922,
      "▁night": 5923,
      "▁manual": 5924,
      "▁notification": 5925,
      "vious": 5926,
      "▁Icon": 5927,
      "▁Additionally": 5928,
      "Api": 5929,
      "andid": 5930,
      "ussian": 5931,
      "enso": 5932,
      "ajor": 5933,
      "▁strateg": 5934,
      "iaz": 5935,
      "▁Insert": 5936,
      "cro": 5937,
      "sched": 5938,
      "*;": 5939,
      "owych": 5940,
      "▁evening": 5941,
      "▁Za": 5942,
      "gage": 5943,
      "elseif": 5944,
      "Duration": 5945,
      "▁ми": 5946,
      "▁Kin": 5947,
      "verts": 5948,
      "át": 5949,
      "▁Campaign": 5950,
      "▁Ident": 5951,
      "spell": 5952,
      "和": 5953,
      "og": 5954,
      "router": 5955,
      "▁Gallery": 5956,
      "▁rub": 5957,
      "▁builder": 5958,
      "▁nick": 5959,
      "旗": 5960,
      "iment": 5961,
      "▁під": 5962,
      "hn": 5963,
      "▁residents": 5964,
      "HOUT": 5965,
      "té": 5966,
      "發": 5967,
      "▁pain": 5968,
      "нії": 5969,
      "DI": 5970,
      "oop": 5971,
      "ierten": 5972,
      "▁Est": 5973,
      "▁reput": 5974,
      "ден": 5975,
      "rust": 5976,
      "▁Egypt": 5977,
      "▁Kore": 5978,
      "┐": 5979,
      "▁stim": 5980,
      "▁años": 5981,
      "ud": 5982,
      "▁commit": 5983,
      "argument": 5984,
      "дол": 5985,
      "lev": 5986,
      "▁print": 5987,
      "IMPORT": 5988,
      "MAP": 5989,
      "▁Fight": 5990,
      "▁vir": 5991,
      "▁Engine": 5992,
      "▁temperatures": 5993,
      "God": 5994,
      "POWER": 5995,
      "ums": 5996,
      "같": 5997,
      "rq": 5998,
      "CLIENT": 5999,
      "series": 6000,
      "▁celebr": 6001,
      "━": 6002,
      "▁anche": 6003,
      "ingham": 6004,
      "onda": 6005,
      "ielle": 6006,
      "loader": 6007,
      "▁Peru": 6008,
      "iste": 6009,
      "фо": 6010,
      "延": 6011,
      "▁Restaur": 6012,
      "▁ERR": 6013,
      "▁first": 6014,
      "\"><": 6015,
      "NOP": 6016,
      "сті": 6017,
      "ъ": 6018,
      "য": 6019,
      "си": 6020,
      "listen": 6021,
      "▁advanced": 6022,
      "▁frequent": 6023,
      "▁offices": 6024,
      "▁Dean": 6025,
      "ît": 6026,
      "SEE": 6027,
      "cod": 6028,
      "▁Jim": 6029,
      "▁strikes": 6030,
      "ating": 6031,
      "rike": 6032,
      "▁Liste": 6033,
      "igator": 6034,
      "‡": 6035,
      "▁decimal": 6036,
      "▁contain": 6037,
      "▁fitting": 6038,
      "河": 6039,
      "章": 6040,
      "i": 6041,
      "▁три": 6042,
      "centering": 6043,
      "▁also": 6044,
      "essions": 6045,
      "▁nederbörd": 6046,
      "ὶ": 6047,
      "▁Eight": 6048,
      "lick": 6049,
      "ើ": 6050,
      "石": 6051,
      "▁IV": 6052,
      "▁Meanwhile": 6053,
      "▁interface": 6054,
      "▁Frankfurt": 6055,
      "cy": 6056,
      "jos": 6057,
      "▁hood": 6058,
      "чення": 6059,
      "▁sugar": 6060,
      "▁RF": 6061,
      "▁char": 6062,
      "？": 6063,
      "Paul": 6064,
      "▁female": 6065,
      "seg": 6066,
      "▁cached": 6067,
      "▁ст": 6068,
      "▁SC": 6069,
      "▁Ent": 6070,
      "▁metrics": 6071,
      "zenia": 6072,
      "▁risk": 6073,
      "GroupName": 6074,
      "▁Sky": 6075,
      "▁größ": 6076,
      "rodu": 6077,
      "▁CD": 6078,
      "romag": 6079,
      "闻": 6080,
      "▁refuge": 6081,
      "▁mater": 6082,
      "留": 6083,
      "ucht": 6084,
      "気": 6085,
      "▁что": 6086,
      "▁Fun": 6087,
      "▁surgery": 6088,
      "oc": 6089,
      "php": 6090,
      "▁cure": 6091,
      "템": 6092,
      "▁pal": 6093,
      "ové": 6094,
      "▁gives": 6095,
      "zu": 6096,
      "▁convince": 6097,
      "chester": 6098,
      "▁Guard": 6099,
      "屏": 6100,
      "洋": 6101,
      "nabla": 6102,
      "сом": 6103,
      "nod": 6104,
      "▁Las": 6105,
      "▁hoping": 6106,
      "▁bru": 6107,
      "▁bronze": 6108,
      "่": 6109,
      "▁aspect": 6110,
      "Routing": 6111,
      "Default": 6112,
      "ivo": 6113,
      "მ": 6114,
      "▁Herz": 6115,
      "▁web": 6116,
      "atos": 6117,
      "▁keeps": 6118,
      "=\"": 6119,
      "コ": 6120,
      "Exec": 6121,
      "▁newsp": 6122,
      "pow": 6123,
      "▁\",": 6124,
      "cell": 6125,
      "jev": 6126,
      "商": 6127,
      "▁tri": 6128,
      "▁Bab": 6129,
      "MOVE": 6130,
      "態": 6131,
      "▁sich": 6132,
      "Mock": 6133,
      "east": 6134,
      "ILED": 6135,
      "▁press": 6136,
      "Indices": 6137,
      "Cred": 6138,
      "ose": 6139,
      "▁reached": 6140,
      "▁Lily": 6141,
      "▁opportunity": 6142,
      "esome": 6143,
      "rost": 6144,
      "izia": 6145,
      "▁Mediterranean": 6146,
      "▁pleasure": 6147,
      "ḍ": 6148,
      "▁En": 6149,
      "ристи": 6150,
      "sender": 6151,
      "En": 6152,
      "▁official": 6153,
      "▁От": 6154,
      "▁optim": 6155,
      "▁España": 6156,
      "▁Actually": 6157,
      "▁eliminate": 6158,
      "Required": 6159,
      "👉": 6160,
      "Join": 6161,
      "cos": 6162,
      "рой": 6163,
      "▁divis": 6164,
      "logging": 6165,
      "▁plural": 6166,
      "▁Sc": 6167,
      "▁land": 6168,
      "▁}));": 6169,
      "út": 6170,
      "翻": 6171,
      "Mic": 6172,
      "▁rim": 6173,
      "▁Jones": 6174,
      "▁judges": 6175,
      "▁Contact": 6176,
      "▁wider": 6177,
      "▁fears": 6178,
      "▁Afghan": 6179,
      "▁plane": 6180,
      "ω": 6181,
      ";}": 6182,
      "▁café": 6183,
      "IA": 6184,
      "HP": 6185,
      "▁Integer": 6186,
      "jection": 6187,
      "은": 6188,
      "▁owns": 6189,
      "▁indicates": 6190,
      "Optional": 6191,
      "hf": 6192,
      "PR": 6193,
      "▁option": 6194,
      "Mut": 6195,
      "玉": 6196,
      "▁Palest": 6197,
      "nost": 6198,
      "谷": 6199,
      "кова": 6200,
      "▁binding": 6201,
      "▁consumption": 6202,
      "▁роз": 6203,
      "td": 6204,
      "▁quality": 6205,
      "▁Edge": 6206,
      "Alias": 6207,
      "▁pci": 6208,
      "fil": 6209,
      "▁trag": 6210,
      "files": 6211,
      "▁Bureau": 6212,
      "▁authors": 6213,
      "▁Би": 6214,
      "▁facility": 6215,
      "총": 6216,
      "▁Arr": 6217,
      "▁cursor": 6218,
      "ainted": 6219,
      "ственной": 6220,
      "next": 6221,
      "▁proxy": 6222,
      "chunk": 6223,
      "assador": 6224,
      "includegraphics": 6225,
      "▁Party": 6226,
      "ş": 6227,
      "▁widget": 6228,
      "emu": 6229,
      "ACC": 6230,
      "short": 6231,
      "點": 6232,
      "▁lightning": 6233,
      "▁Se": 6234,
      "-)": 6235,
      "fortunately": 6236,
      "▁Station": 6237,
      "▁PI": 6238,
      "language": 6239,
      "개": 6240,
      "unched": 6241,
      "▁Big": 6242,
      "eden": 6243,
      "▁clay": 6244,
      "▁intr": 6245,
      "曲": 6246,
      "elect": 6247,
      "▁avait": 6248,
      "спе": 6249,
      "uly": 6250,
      "▁Is": 6251,
      "aran": 6252,
      "▁Ni": 6253,
      "bus": 6254,
      "▁Sand": 6255,
      "ples": 6256,
      "▁Č": 6257,
      "sp": 6258,
      "osh": 6259,
      "prevent": 6260,
      "atisf": 6261,
      "sil": 6262,
      "յ": 6263,
      "▁sep": 6264,
      "▁fundament": 6265,
      "▁mois": 6266,
      "▁charm": 6267,
      "viously": 6268,
      "ski": 6269,
      "マ": 6270,
      "示": 6271,
      "▁poem": 6272,
      "ALIGN": 6273,
      "▁arrangement": 6274,
      "▁false": 6275,
      "▁Suz": 6276,
      "omen": 6277,
      "Errorf": 6278,
      "威": 6279,
      "!--": 6280,
      "▁M": 6281,
      "▁constitution": 6282,
      "▁compilation": 6283,
      "iple": 6284,
      "▁started": 6285,
      "__)": 6286,
      "牌": 6287,
      "▁Votes": 6288,
      "cción": 6289,
      "▁h": 6290,
      "▁conviction": 6291,
      "▁PG": 6292,
      "Enum": 6293,
      "нь": 6294,
      "GU": 6295,
      "Live": 6296,
      "▁assumptions": 6297,
      "oes": 6298,
      "tu": 6299,
      "Off": 6300,
      "pe": 6301,
      "grpc": 6302,
      "跳": 6303,
      "▁/***/": 6304,
      "▁Nixon": 6305,
      "▁free": 6306,
      "je": 6307,
      "▁September": 6308,
      "▁accus": 6309,
      "个": 6310,
      "▁kur": 6311,
      "▁сем": 6312,
      "▁natur": 6313,
      "outes": 6314,
      "▁Kit": 6315,
      "수": 6316,
      "Cell": 6317,
      "▁(!": 6318,
      "▁implementing": 6319,
      "з": 6320,
      "Ж": 6321,
      "▁Denmark": 6322,
      "iques": 6323,
      "▁reinforce": 6324,
      "▁direction": 6325,
      "Strings": 6326,
      "▁Ges": 6327,
      "▁experiences": 6328,
      "▁Rog": 6329,
      "▁pants": 6330,
      "▁Gr": 6331,
      "Loop": 6332,
      "since": 6333,
      "db": 6334,
      "": 6335,
      "font": 6336,
      "▁PURPOSE": 6337,
      "▁expanded": 6338,
      "esser": 6339,
      "▁itself": 6340,
      "▁comprehensive": 6341,
      "▁Eng": 6342,
      "▁treatments": 6343,
      "▁Eq": 6344,
      "▁mise": 6345,
      "▁clin": 6346,
      "▁arrow": 6347,
      "idan": 6348,
      "返": 6349,
      "▁HashMap": 6350,
      "▁decent": 6351,
      "'_": 6352,
      "▁budget": 6353,
      "▁Railway": 6354,
      "getContext": 6355,
      "专": 6356,
      "бе": 6357,
      "▁Gre": 6358,
      "=[": 6359,
      "▁Unter": 6360,
      "▁Coach": 6361,
      "shell": 6362,
      "▁awake": 6363,
      "▁sched": 6364,
      "ství": 6365,
      "▁fasc": 6366,
      "ulture": 6367,
      "ĭ": 6368,
      "thal": 6369,
      "oggle": 6370,
      "+-": 6371,
      "bourne": 6372,
      "▁Create": 6373,
      "▁Bun": 6374,
      "▁org": 6375,
      "num": 6376,
      "▁cute": 6377,
      "grad": 6378,
      "orp": 6379,
      "▁bon": 6380,
      "走": 6381,
      "ateurs": 6382,
      "▁Happy": 6383,
      "投": 6384,
      "ɒ": 6385,
      "▁millions": 6386,
      "U": 6387,
      "reduce": 6388,
      "ATTRIB": 6389,
      "退": 6390,
      "▁Ag": 6391,
      "▁Heavy": 6392,
      "▁notamment": 6393,
      "▁Planning": 6394,
      "▁pier": 6395,
      "▁bicy": 6396,
      "▁excessive": 6397,
      "▁kol": 6398,
      "▁sanct": 6399,
      "Weight": 6400,
      "▁designed": 6401,
      "Just": 6402,
      "▁pockets": 6403,
      "▁history": 6404,
      "▁fuel": 6405,
      "Price": 6406,
      "디": 6407,
      "▁vocal": 6408,
      "fen": 6409,
      "▁customers": 6410,
      "▁NT": 6411,
      "▁поль": 6412,
      "▁Mi": 6413,
      "▁argue": 6414,
      "opol": 6415,
      "▁Lol": 6416,
      "orial": 6417,
      "▁Се": 6418,
      "ados": 6419,
      "▁distinctive": 6420,
      "eros": 6421,
      "loat": 6422,
      "▁dragon": 6423,
      "ció": 6424,
      "▁spare": 6425,
      "proto": 6426,
      "▁Ein": 6427,
      "▁colony": 6428,
      "▁verb": 6429,
      "ở": 6430,
      "WS": 6431,
      "`,": 6432,
      "▁Cand": 6433,
      "Comm": 6434,
      "▁In": 6435,
      "串": 6436,
      "ق": 6437,
      "\u0001": 6438,
      "olves": 6439,
      "▁sac": 6440,
      "Sv": 6441,
      "▁sober": 6442,
      "km": 6443,
      "ография": 6444,
      "▁URI": 6445,
      "Thanks": 6446,
      "工": 6447,
      "ми": 6448,
      "▁blocks": 6449,
      "Fin": 6450,
      "▁platforms": 6451,
      "▁stabil": 6452,
      "--)": 6453,
      "▁og": 6454,
      "TIME": 6455,
      "都": 6456,
      "->": 6457,
      "▁Bin": 6458,
      "▁enhance": 6459,
      "prev": 6460,
      "▁institutions": 6461,
      "▁slight": 6462,
      "▁when": 6463,
      "▁после": 6464,
      "ě": 6465,
      "engu": 6466,
      "▁doubts": 6467,
      "▁consecutive": 6468,
      "Gamma": 6469,
      "▁declaration": 6470,
      "主": 6471,
      "▁proposition": 6472,
      "liche": 6473,
      "Analysis": 6474,
      "▁numerical": 6475,
      "▁held": 6476,
      "scheme": 6477,
      "Idx": 6478,
      "▁ej": 6479,
      "igte": 6480,
      "Turn": 6481,
      "CF": 6482,
      "▁pepper": 6483,
      "▁gray": 6484,
      "substr": 6485,
      "=\\": 6486,
      "▁memories": 6487,
      "dentry": 6488,
      "▁sources": 6489,
      "▁checked": 6490,
      "▁Hind": 6491,
      "NU": 6492,
      "▁Мар": 6493,
      "pages": 6494,
      "änge": 6495,
      "▁Marcatori": 6496,
      "Layer": 6497,
      "넣": 6498,
      "hold": 6499,
      "?(": 6500,
      "bytes": 6501,
      "write": 6502,
      "六": 6503,
      "csv": 6504,
      "ql": 6505,
      "Z": 6506,
      "▁UTC": 6507,
      "attachment": 6508,
      "▁PC": 6509,
      "▁ál": 6510,
      "chrome": 6511,
      "▁halfway": 6512,
      "ní": 6513,
      "▁Phase": 6514,
      "▁Cloud": 6515,
      "▁arbitrary": 6516,
      "▁curse": 6517,
      "▁partir": 6518,
      "Sign": 6519,
      "samples": 6520,
      "akten": 6521,
      "ain": 6522,
      "▁After": 6523,
      "ard": 6524,
      "量": 6525,
      "▁сторо": 6526,
      "완": 6527,
      "▁advantage": 6528,
      "л": 6529,
      "▁дво": 6530,
      "▁facing": 6531,
      "▁faint": 6532,
      "▁measure": 6533,
      "ɹ": 6534,
      "▁correction": 6535,
      "▁Ted": 6536,
      "▁unlikely": 6537,
      "eries": 6538,
      "▁anti": 6539,
      "▁SORT": 6540,
      "session": 6541,
      "Β": 6542,
      "Ip": 6543,
      "応": 6544,
      "▁Pub": 6545,
      "▁artic": 6546,
      "▁Bach": 6547,
      "ultane": 6548,
      "▁Matt": 6549,
      "icial": 6550,
      "▁streaming": 6551,
      "antal": 6552,
      "▁bod": 6553,
      "ampion": 6554,
      "});": 6555,
      "sequently": 6556,
      "ployment": 6557,
      "争": 6558,
      "ín": 6559,
      "▁niet": 6560,
      "▁for": 6561,
      ")--": 6562,
      "ua": 6563,
      "▁merged": 6564,
      "▁Mid": 6565,
      "▁switching": 6566,
      "▁video": 6567,
      "ป": 6568,
      "ceed": 6569,
      "▁Features": 6570,
      "ā": 6571,
      "▁minutes": 6572,
      "PEND": 6573,
      "▁Parl": 6574,
      "總": 6575,
      "▁serious": 6576,
      "Separator": 6577,
      "▁Sout": 6578,
      "unct": 6579,
      "underline": 6580,
      "▁Bot": 6581,
      "▁Illinois": 6582,
      "segment": 6583,
      "ве": 6584,
      "▁player": 6585,
      "uid": 6586,
      "▁peoples": 6587,
      "EEE": 6588,
      "_)": 6589,
      "TypeInfo": 6590,
      "URI": 6591,
      "istic": 6592,
      "▁shell": 6593,
      "Š": 6594,
      "▁nou": 6595,
      "▁Bruce": 6596,
      "▁audiences": 6597,
      "ova": 6598,
      "▁cada": 6599,
      "agan": 6600,
      "▁DateTime": 6601,
      "▁treats": 6602,
      "▁på": 6603,
      "och": 6604,
      "uto": 6605,
      "UD": 6606,
      "onom": 6607,
      "▁Venez": 6608,
      "▁discovered": 6609,
      "▁dough": 6610,
      "Sp": 6611,
      "▁share": 6612,
      "iqu": 6613,
      "NET": 6614,
      "▁AUT": 6615,
      "leen": 6616,
      "▁Queensland": 6617,
      "yl": 6618,
      "Kit": 6619,
      "▁painted": 6620,
      "▁{\\": 6621,
      "▁Gi": 6622,
      "▁phrase": 6623,
      "umi": 6624,
      "ename": 6625,
      "rpc": 6626,
      "aden": 6627,
      "éral": 6628,
      "scrib": 6629,
      "▁json": 6630,
      "äsident": 6631,
      "众": 6632,
      "Pl": 6633,
      "▁Case": 6634,
      "▁stable": 6635,
      "▁You": 6636,
      "ever": 6637,
      "▁bet": 6638,
      "rev": 6639,
      "▁hunt": 6640,
      "Spring": 6641,
      "者": 6642,
      "▁overl": 6643,
      "spieler": 6644,
      "eras": 6645,
      "▁valley": 6646,
      "▁François": 6647,
      "vey": 6648,
      "浪": 6649,
      "▁img": 6650,
      "inherit": 6651,
      "▁dém": 6652,
      "▁branches": 6653,
      "▁boats": 6654,
      "▁▁▁▁▁▁▁▁": 6655,
      "î": 6656,
      "▁burst": 6657,
      "Effect": 6658,
      "공": 6659,
      "<?": 6660,
      "Sort": 6661,
      "▁packages": 6662,
      "Rele": 6663,
      "▁bike": 6664,
      "선": 6665,
      "classList": 6666,
      "hentication": 6667,
      "iner": 6668,
      "▁Send": 6669,
      "▁tried": 6670,
      "▁House": 6671,
      "Classes": 6672,
      "Amaz": 6673,
      "势": 6674,
      "ೆ": 6675,
      "▁Murphy": 6676,
      "▁Ces": 6677,
      "▁earlier": 6678,
      "Ray": 6679,
      "▁дека": 6680,
      "▁positions": 6681,
      "apa": 6682,
      "ahr": 6683,
      "▁butt": 6684,
      "▁Someone": 6685,
      "zon": 6686,
      "▁Wasser": 6687,
      "▁Pere": 6688,
      "avia": 6689,
      "▁dia": 6690,
      "Sal": 6691,
      "▁Buc": 6692,
      "unnel": 6693,
      "\u0003": 6694,
      "Pack": 6695,
      "▁creat": 6696,
      "org": 6697,
      "tal": 6698,
      "lesh": 6699,
      "удо": 6700,
      "▁eyebrows": 6701,
      "osen": 6702,
      "▁elderly": 6703,
      "Sequ": 6704,
      "pos": 6705,
      "▁summary": 6706,
      "▁unconscious": 6707,
      "gain": 6708,
      "▁activ": 6709,
      "▁assumption": 6710,
      "▁\"_": 6711,
      "▁Science": 6712,
      "▁peu": 6713,
      "▁Writer": 6714,
      "yers": 6715,
      "avier": 6716,
      "amber": 6717,
      "त": 6718,
      "▁czę": 6719,
      "顺": 6720,
      "block": 6721,
      "▁чтобы": 6722,
      "vá": 6723,
      "▁quit": 6724,
      "ེ": 6725,
      "emet": 6726,
      "▁skip": 6727,
      "▁present": 6728,
      "ild": 6729,
      "▁diciembre": 6730,
      "▁triple": 6731,
      "iele": 6732,
      "▁admission": 6733,
      "раль": 6734,
      "▁cet": 6735,
      "▁MB": 6736,
      "abases": 6737,
      "pus": 6738,
      "▁measurement": 6739,
      "ür": 6740,
      "▁port": 6741,
      "erc": 6742,
      "將": 6743,
      "▁ptr": 6744,
      "typeof": 6745,
      "ле": 6746,
      "inters": 6747,
      "▁after": 6748,
      "▁Maine": 6749,
      "▁It": 6750,
      "на": 6751,
      "▁Nam": 6752,
      "ATCH": 6753,
      "cca": 6754,
      "▁take": 6755,
      "card": 6756,
      "proof": 6757,
      "▁Series": 6758,
      "MC": 6759,
      "Week": 6760,
      "▁study": 6761,
      "Change": 6762,
      "▁businesses": 6763,
      "ównie": 6764,
      "Guid": 6765,
      "dbg": 6766,
      "...,": 6767,
      "dog": 6768,
      "▁États": 6769,
      "▁bought": 6770,
      "❤": 6771,
      "Errors": 6772,
      "▁&=&": 6773,
      "mit": 6774,
      "▁Wu": 6775,
      "ifest": 6776,
      "in": 6777,
      "▁Now": 6778,
      "pd": 6779,
      "▁г": 6780,
      "AME": 6781,
      "义": 6782,
      "▁whose": 6783,
      "like": 6784,
      "DEF": 6785,
      "▁credit": 6786,
      "child": 6787,
      "▁Brow": 6788,
      "색": 6789,
      "▁adjacent": 6790,
      "super": 6791,
      "relative": 6792,
      "死": 6793,
      "norm": 6794,
      "▁circum": 6795,
      "▁Illegal": 6796,
      "tit": 6797,
      "шим": 6798,
      "зни": 6799,
      "\":": 6800,
      "确": 6801,
      "▁tart": 6802,
      "terior": 6803,
      "▁(†": 6804,
      "▁temple": 6805,
      "'))": 6806,
      "FILE": 6807,
      "依": 6808,
      "Dem": 6809,
      "Θ": 6810,
      "▁bias": 6811,
      "Res": 6812,
      "▁algebra": 6813,
      "▁Papers": 6814,
      "ots": 6815,
      "▁Sm": 6816,
      "▁spraw": 6817,
      "taient": 6818,
      "▁workers": 6819,
      "IFY": 6820,
      "Gu": 6821,
      "▁Africa": 6822,
      "▁center": 6823,
      "▁continue": 6824,
      "▁свои": 6825,
      "Best": 6826,
      "iento": 6827,
      "alloc": 6828,
      "幅": 6829,
      "▁Bi": 6830,
      "转": 6831,
      "▁hire": 6832,
      "zten": 6833,
      "▁integral": 6834,
      "차": 6835,
      "▁celebrated": 6836,
      "▁Transport": 6837,
      "områ": 6838,
      "toire": 6839,
      "▁Luis": 6840,
      "▁storage": 6841,
      "ří": 6842,
      "cc": 6843,
      "vised": 6844,
      "CREF": 6845,
      "▁narr": 6846,
      "screen": 6847,
      "监": 6848,
      "▁Engineering": 6849,
      "emic": 6850,
      "寻": 6851,
      "fect": 6852,
      "▁Feel": 6853,
      "pu": 6854,
      "▁Manchester": 6855,
      "should": 6856,
      "ential": 6857,
      "';": 6858,
      "▁hopefully": 6859,
      "▁PL": 6860,
      "▁transport": 6861,
      "▁shot": 6862,
      "▁tasks": 6863,
      "▁developers": 6864,
      "eler": 6865,
      "▁ange": 6866,
      "oul": 6867,
      "▁Mont": 6868,
      "▁MAX": 6869,
      "Color": 6870,
      "夢": 6871,
      "Մ": 6872,
      ")+\\": 6873,
      "간": 6874,
      "▁Intelligence": 6875,
      "armed": 6876,
      "▁shade": 6877,
      "▁connect": 6878,
      "ipes": 6879,
      "▁ESP": 6880,
      "pg": 6881,
      "ther": 6882,
      "▁newspaper": 6883,
      "▁Elect": 6884,
      "OD": 6885,
      "▁bras": 6886,
      "ul": 6887,
      "▁Name": 6888,
      "▁coaching": 6889,
      "Frame": 6890,
      "▁entirely": 6891,
      "▁dishes": 6892,
      "world": 6893,
      "▁therapy": 6894,
      "пра": 6895,
      "▁Kong": 6896,
      "▁Mär": 6897,
      "▁ingen": 6898,
      "▁Alber": 6899,
      "Adjust": 6900,
      "Identifier": 6901,
      "form": 6902,
      "setState": 6903,
      "✭": 6904,
      "icks": 6905,
      "▁adopted": 6906,
      "▁Re": 6907,
      "хід": 6908,
      "▁year": 6909,
      "▁NAS": 6910,
      "勇": 6911,
      "Lif": 6912,
      "▁miem": 6913,
      "▁By": 6914,
      "hest": 6915,
      "▁sustainable": 6916,
      "▁blinked": 6917,
      "▁sophisticated": 6918,
      "space": 6919,
      "rieg": 6920,
      "▁jacket": 6921,
      "▁Come": 6922,
      "▁fot": 6923,
      "▁Issue": 6924,
      "#{": 6925,
      "Player": 6926,
      "Origin": 6927,
      "▁form": 6928,
      "▁Estado": 6929,
      "book": 6930,
      "fy": 6931,
      "▁chaos": 6932,
      "room": 6933,
      "▁expecting": 6934,
      "What": 6935,
      "▁Fol": 6936,
      "ョ": 6937,
      "iven": 6938,
      "▁Clin": 6939,
      "▁weather": 6940,
      "ی": 6941,
      "▁worm": 6942,
      "useppe": 6943,
      "T": 6944,
      "▁ged": 6945,
      "ческие": 6946,
      "********": 6947,
      "抛": 6948,
      "CHANNEL": 6949,
      "绘": 6950,
      "anka": 6951,
      "Well": 6952,
      "▁Release": 6953,
      "▁ka": 6954,
      "試": 6955,
      "▁Ep": 6956,
      "▁privile": 6957,
      "Adv": 6958,
      "▁Histor": 6959,
      "eth": 6960,
      "▁sept": 6961,
      "▁feeling": 6962,
      "place": 6963,
      "мб": 6964,
      "▁Chall": 6965,
      "GET": 6966,
      "▁drug": 6967,
      "ACTIVE": 6968,
      "▁stepping": 6969,
      "▁D": 6970,
      "sources": 6971,
      ">&": 6972,
      "oint": 6973,
      "ђ": 6974,
      "▁inte": 6975,
      "▁gruppo": 6976,
      "▁está": 6977,
      "▁coordinate": 6978,
      "Щ": 6979,
      "望": 6980,
      ";/": 6981,
      "rying": 6982,
      "▁seine": 6983,
      "▁Raymond": 6984,
      "▁clinical": 6985,
      "▁gotten": 6986,
      "▁Collection": 6987,
      "▁fract": 6988,
      "▁bec": 6989,
      "mediate": 6990,
      "할": 6991,
      "▁Delete": 6992,
      "▁COM": 6993,
      "uffix": 6994,
      "ela": 6995,
      "▁argv": 6996,
      "▁referring": 6997,
      "legal": 6998,
      "▁franc": 6999,
      "▁suck": 7000,
      "pb": 7001,
      "prop": 7002,
      "vt": 7003,
      "rent": 7004,
      "nab": 7005,
      "icking": 7006,
      "ை": 7007,
      "▁LICENSE": 7008,
      "우": 7009,
      "Obj": 7010,
      "лён": 7011,
      "activate": 7012,
      "orent": 7013,
      "Popup": 7014,
      "ច": 7015,
      "▁Serial": 7016,
      "▁dici": 7017,
      "▁stunning": 7018,
      "易": 7019,
      "▁Any": 7020,
      "aration": 7021,
      "▁Tro": 7022,
      ".}": 7023,
      "onden": 7024,
      "coll": 7025,
      "M": 7026,
      "毫": 7027,
      "▁Gary": 7028,
      "س": 7029,
      "▁cake": 7030,
      "Cut": 7031,
      "▁approved": 7032,
      "▁Scal": 7033,
      "hadoop": 7034,
      "/>": 7035,
      "ALLOC": 7036,
      "▁manera": 7037,
      "TF": 7038,
      "▁person": 7039,
      "expression": 7040,
      "দ": 7041,
      "Timeout": 7042,
      "▁filename": 7043,
      "▁conf": 7044,
      "▁do": 7045,
      "iforn": 7046,
      "worth": 7047,
      "▁Ernst": 7048,
      "▁abandon": 7049,
      "води": 7050,
      "touch": 7051,
      "perm": 7052,
      "▁remember": 7053,
      "▁Clark": 7054,
      "▁Andrea": 7055,
      "▁Jar": 7056,
      "▁Th": 7057,
      "آ": 7058,
      "ju": 7059,
      "▁dimensional": 7060,
      "▁fue": 7061,
      "▁его": 7062,
      "▁raising": 7063,
      "尽": 7064,
      "▁ма": 7065,
      "너": 7066,
      "сь": 7067,
      "▁их": 7068,
      "seven": 7069,
      "▁Kont": 7070,
      "宿": 7071,
      "▁augment": 7072,
      "++;": 7073,
      "TX": 7074,
      "сій": 7075,
      "링": 7076,
      "▁corps": 7077,
      "▁cruel": 7078,
      "▁gent": 7079,
      "▁trigger": 7080,
      "▁Full": 7081,
      "▁AN": 7082,
      "▁legal": 7083,
      "Listeners": 7084,
      "blue": 7085,
      "▁Email": 7086,
      "ision": 7087,
      "AUTO": 7088,
      "▁откры": 7089,
      "frak": 7090,
      "▁gem": 7091,
      "▁voor": 7092,
      "▁Gem": 7093,
      "ented": 7094,
      "▁stumbled": 7095,
      "除": 7096,
      "bio": 7097,
      "▁farms": 7098,
      "ulpt": 7099,
      "orne": 7100,
      "DEFAULT": 7101,
      "kir": 7102,
      "po": 7103,
      "▁oficial": 7104,
      "▁trails": 7105,
      "Analy": 7106,
      "馆": 7107,
      "▁Maur": 7108,
      "SUCCESS": 7109,
      "cop": 7110,
      "pgfpath": 7111,
      "pected": 7112,
      "▁Gib": 7113,
      "☺": 7114,
      "▁laboratory": 7115,
      "▁hover": 7116,
      "▁cleaned": 7117,
      "▁exhibition": 7118,
      "▁Jah": 7119,
      "ref": 7120,
      "iami": 7121,
      "济": 7122,
      "ording": 7123,
      "course": 7124,
      "ὐ": 7125,
      "server": 7126,
      "▁specific": 7127,
      "▁colour": 7128,
      "\"></": 7129,
      "灵": 7130,
      "▁poss": 7131,
      "▁opinion": 7132,
      "▁screaming": 7133,
      "▁continent": 7134,
      "▁Germ": 7135,
      "Cmd": 7136,
      "▁först": 7137,
      "true": 7138,
      "羽": 7139,
      "ader": 7140,
      "ennis": 7141,
      "▁foreach": 7142,
      "Bar": 7143,
      "las": 7144,
      "▁improve": 7145,
      "spl": 7146,
      "▁punt": 7147,
      ".\";": 7148,
      "▁convergence": 7149,
      "▁wish": 7150,
      "▁Mrs": 7151,
      "▁period": 7152,
      "ogen": 7153,
      "▁Young": 7154,
      "Mapper": 7155,
      "spe": 7156,
      "▁found": 7157,
      "▁dan": 7158,
      "iante": 7159,
      "ним": 7160,
      "}$-": 7161,
      "Helpers": 7162,
      "dro": 7163,
      "▁elim": 7164,
      "MAN": 7165,
      "ie": 7166,
      "▁{": 7167,
      "quarters": 7168,
      "▁spotted": 7169,
      "掉": 7170,
      "▁completing": 7171,
      "acular": 7172,
      "kol": 7173,
      "▁trace": 7174,
      "ძ": 7175,
      "▁Eff": 7176,
      "Ga": 7177,
      "▁ways": 7178,
      "▁bem": 7179,
      "▁Innov": 7180,
      "unn": 7181,
      "▁cush": 7182,
      "를": 7183,
      "ement": 7184,
      "▁username": 7185,
      "constructor": 7186,
      "eb": 7187,
      "▁{};": 7188,
      "ane": 7189,
      "estone": 7190,
      "▁resources": 7191,
      "绍": 7192,
      "▁exam": 7193,
      "File": 7194,
      "▁Lau": 7195,
      "机": 7196,
      "dc": 7197,
      "▁command": 7198,
      "Syntax": 7199,
      "OPT": 7200,
      "burg": 7201,
      ">%": 7202,
      "▁через": 7203,
      "▁wage": 7204,
      "▁backed": 7205,
      "▁recalled": 7206,
      "▁chuck": 7207,
      "▁Grace": 7208,
      "타": 7209,
      "▁trying": 7210,
      "Transfer": 7211,
      "dagger": 7212,
      "▁patterns": 7213,
      "▁amer": 7214,
      "▁born": 7215,
      "ные": 7216,
      "▁inverse": 7217,
      "ypes": 7218,
      "LETE": 7219,
      "房": 7220,
      "▁y": 7221,
      "▁AWS": 7222,
      "otto": 7223,
      "▁sovere": 7224,
      "ву": 7225,
      "classes": 7226,
      "gen": 7227,
      "six": 7228,
      "▁Technical": 7229,
      "∼": 7230,
      "ζ": 7231,
      "fur": 7232,
      "▁imprison": 7233,
      "Three": 7234,
      "correct": 7235,
      "utt": 7236,
      "▁Brig": 7237,
      "▁Hamburg": 7238,
      "boy": 7239,
      "itty": 7240,
      "▁Sets": 7241,
      "brief": 7242,
      "▁occurs": 7243,
      "▁Vil": 7244,
      "▁Point": 7245,
      "'),": 7246,
      "▁certain": 7247,
      "▁Mathemat": 7248,
      "▁notify": 7249,
      "▁nn": 7250,
      "([": 7251,
      "ocol": 7252,
      "ople": 7253,
      "☠": 7254,
      "▁Hard": 7255,
      "Los": 7256,
      "▁Krieg": 7257,
      "▁).": 7258,
      "▁Father": 7259,
      "oge": 7260,
      "▁anterior": 7261,
      "▁tit": 7262,
      "DOT": 7263,
      "▁presidente": 7264,
      "doc": 7265,
      "topic": 7266,
      "따": 7267,
      "▁confident": 7268,
      "▁saison": 7269,
      "▁unknown": 7270,
      "▁spy": 7271,
      "ể": 7272,
      "▁direct": 7273,
      "▁booking": 7274,
      "▁weakness": 7275,
      "▁revol": 7276,
      "▁laws": 7277,
      "ў": 7278,
      "тан": 7279,
      "▁dyn": 7280,
      "select": 7281,
      "▁Madrid": 7282,
      "ê": 7283,
      "Yeah": 7284,
      "ή": 7285,
      "roups": 7286,
      "oss": 7287,
      "▁Phill": 7288,
      "≈": 7289,
      "▁Barbara": 7290,
      "Xamarin": 7291,
      "eks": 7292,
      "ura": 7293,
      "roid": 7294,
      "acja": 7295,
      "▁груп": 7296,
      "▁paper": 7297,
      "▁poder": 7298,
      "ánd": 7299,
      "▁native": 7300,
      "Č": 7301,
      "ft": 7302,
      "▁Mun": 7303,
      "▁dug": 7304,
      "Forms": 7305,
      "▁Urban": 7306,
      "elif": 7307,
      "vue": 7308,
      "气": 7309,
      "▁shares": 7310,
      "ió": 7311,
      "ã": 7312,
      "▁conoc": 7313,
      "Servlet": 7314,
      "▁ци": 7315,
      "TRUE": 7316,
      "▁grud": 7317,
      "▁gas": 7318,
      "efficient": 7319,
      "▁refriger": 7320,
      "emit": 7321,
      "▁tous": 7322,
      "▁bare": 7323,
      "키": 7324,
      "MAGES": 7325,
      "По": 7326,
      "iate": 7327,
      "Initialized": 7328,
      "▁Il": 7329,
      "▁adv": 7330,
      "ls": 7331,
      "▁Updated": 7332,
      "▁Good": 7333,
      "▁recuper": 7334,
      "roll": 7335,
      "▁Lab": 7336,
      "▁invalid": 7337,
      "▁))": 7338,
      "є": 7339,
      "icios": 7340,
      "檔": 7341,
      "▁bra": 7342,
      "▁rés": 7343,
      "▁cracked": 7344,
      "▁flexibility": 7345,
      "▁vest": 7346,
      "▁patrol": 7347,
      "school": 7348,
      "▁клу": 7349,
      "iblic": 7350,
      "Shell": 7351,
      "火": 7352,
      "ste": 7353,
      "▁Lamb": 7354,
      "▁academ": 7355,
      "▁chap": 7356,
      "Δ": 7357,
      "▁Pe": 7358,
      "Im": 7359,
      "চ": 7360,
      "рабо": 7361,
      "▁votes": 7362,
      "▁software": 7363,
      "▁wounded": 7364,
      "▁How": 7365,
      "η": 7366,
      ">:": 7367,
      "▁reaches": 7368,
      "喜": 7369,
      "ческий": 7370,
      "ović": 7371,
      "itches": 7372,
      "▁blast": 7373,
      "▁hearing": 7374,
      "▁mes": 7375,
      "才": 7376,
      "TARGET": 7377,
      "▁couple": 7378,
      "enders": 7379,
      "श": 7380,
      "▁guilty": 7381,
      "複": 7382,
      "▁genom": 7383,
      "▁occurring": 7384,
      "▁possibility": 7385,
      "▁dup": 7386,
      "▁transfer": 7387,
      "▁satisfaction": 7388,
      "accur": 7389,
      "▁building": 7390,
      "sole": 7391,
      "▁idiot": 7392,
      "▁duty": 7393,
      "▁Gate": 7394,
      "▁Od": 7395,
      "▁utility": 7396,
      "▁communities": 7397,
      "▁io": 7398,
      "▁=>": 7399,
      "PC": 7400,
      "сер": 7401,
      "Testing": 7402,
      "ationToken": 7403,
      "▁celle": 7404,
      "פ": 7405,
      "▁Cro": 7406,
      "▁recruit": 7407,
      "ől": 7408,
      "▁prend": 7409,
      "с": 7410,
      "Buttons": 7411,
      "자": 7412,
      "▁hammer": 7413,
      "▁lo": 7414,
      "XXXX": 7415,
      "ಗ": 7416,
      "▁Lake": 7417,
      "▁vault": 7418,
      "▁Pen": 7419,
      "▁unt": 7420,
      "▁Hello": 7421,
      "Є": 7422,
      "▁rifle": 7423,
      "listed": 7424,
      "ED": 7425,
      "▁Dire": 7426,
      "üh": 7427,
      "ньо": 7428,
      "INS": 7429,
      "bat": 7430,
      "qual": 7431,
      "▁Seattle": 7432,
      "▁brace": 7433,
      "▁Family": 7434,
      "▁energies": 7435,
      "▁ST": 7436,
      "▁giugno": 7437,
      "ǫ": 7438,
      "recv": 7439,
      "๐": 7440,
      "乡": 7441,
      "▁Germans": 7442,
      "▁tour": 7443,
      "asma": 7444,
      "감": 7445,
      "処": 7446,
      "▁largest": 7447,
      "▁mechanisms": 7448,
      "domin": 7449,
      "root": 7450,
      "annon": 7451,
      "▁traits": 7452,
      "▁expansion": 7453,
      "lower": 7454,
      "icates": 7455,
      "▁persu": 7456,
      "▁machinery": 7457,
      "衣": 7458,
      "▁already": 7459,
      "▁Isa": 7460,
      "FAILED": 7461,
      "rons": 7462,
      "▁joint": 7463,
      "▁allocate": 7464,
      "weet": 7465,
      "▁Apache": 7466,
      "▁Azure": 7467,
      "▁infl": 7468,
      "gnu": 7469,
      "▁Fly": 7470,
      "▁reflection": 7471,
      "▁management": 7472,
      "▁East": 7473,
      "Tim": 7474,
      "▁noon": 7475,
      "▁relevant": 7476,
      "▁Daddy": 7477,
      "фа": 7478,
      "▁carries": 7479,
      "Even": 7480,
      "램": 7481,
      "▁Meet": 7482,
      "类": 7483,
      "UEST": 7484,
      "^{-\\": 7485,
      "受": 7486,
      "▁brush": 7487,
      "▁Making": 7488,
      "公": 7489,
      "umpy": 7490,
      "atura": 7491,
      "ailable": 7492,
      "AAAA": 7493,
      "▁исполь": 7494,
      "င": 7495,
      "luss": 7496,
      "Include": 7497,
      "此": 7498,
      "ational": 7499,
      "▁Fem": 7500,
      "prod": 7501,
      "▁kick": 7502,
      "▁пі": 7503,
      "ABLE": 7504,
      "////": 7505,
      "Process": 7506,
      "bour": 7507,
      "notations": 7508,
      "▁gev": 7509,
      "panel": 7510,
      "忠": 7511,
      "Video": 7512,
      "GO": 7513,
      "ἰ": 7514,
      "▁pul": 7515,
      "▁suggest": 7516,
      "▁pseudo": 7517,
      "oka": 7518,
      "[-": 7519,
      "roud": 7520,
      "MAT": 7521,
      "▁ging": 7522,
      "▁unless": 7523,
      "exists": 7524,
      ")}\\": 7525,
      "▁Spanish": 7526,
      "inator": 7527,
      "://": 7528,
      "▁allocated": 7529,
      "▁ir": 7530,
      "ย": 7531,
      "▁students": 7532,
      "External": 7533,
      "here": 7534,
      "▁Lov": 7535,
      "anny": 7536,
      "▁Hav": 7537,
      "▌": 7538,
      "iled": 7539,
      "itud": 7540,
      "받": 7541,
      "▁mp": 7542,
      "nf": 7543,
      "▁hy": 7544,
      "forced": 7545,
      "▁prepared": 7546,
      "▁there": 7547,
      "▁agreements": 7548,
      "EO": 7549,
      "▁CBD": 7550,
      "unfinished": 7551,
      "begin": 7552,
      "€": 7553,
      "▁Ker": 7554,
      "▁lion": 7555,
      "inth": 7556,
      "▁tor": 7557,
      "雷": 7558,
      "▁noting": 7559,
      "▁fought": 7560,
      "$),": 7561,
      ".“": 7562,
      "reno": 7563,
      "packed": 7564,
      "▁MD": 7565,
      "服": 7566,
      "▁asshole": 7567,
      "ison": 7568,
      "ês": 7569,
      "Dan": 7570,
      "▁attra": 7571,
      "목": 7572,
      "▁exercise": 7573,
      "iesz": 7574,
      "▁familjen": 7575,
      "▁nell": 7576,
      "▁tensor": 7577,
      "د": 7578,
      "................": 7579,
      "▁fix": 7580,
      "▁blowing": 7581,
      "ર": 7582,
      "▁failure": 7583,
      "getElement": 7584,
      "▁Return": 7585,
      "————": 7586,
      "azed": 7587,
      "▁banda": 7588,
      "用": 7589,
      "▁ended": 7590,
      "MA": 7591,
      "▁blind": 7592,
      "eto": 7593,
      "▁elder": 7594,
      "▁Metal": 7595,
      "▁preg": 7596,
      "▁particles": 7597,
      "▁namespace": 7598,
      "yk": 7599,
      "▁вто": 7600,
      "▁til": 7601,
      "▁further": 7602,
      "▁guide": 7603,
      "গ": 7604,
      "▁territory": 7605,
      "ROW": 7606,
      "Sprintf": 7607,
      "▁medication": 7608,
      "driver": 7609,
      "▁welcome": 7610,
      "▁notably": 7611,
      "RET": 7612,
      "▁Batt": 7613,
      "▁fruit": 7614,
      "▁happening": 7615,
      "fund": 7616,
      "ں": 7617,
      "▁inventory": 7618,
      "’.": 7619,
      "嘉": 7620,
      "獲": 7621,
      "▁embarrass": 7622,
      "▁representative": 7623,
      "lineto": 7624,
      "▁dim": 7625,
      "pop": 7626,
      "▁december": 7627,
      "▁shirt": 7628,
      "说": 7629,
      "gling": 7630,
      "nels": 7631,
      "▁compr": 7632,
      "sert": 7633,
      "▁sistema": 7634,
      "atu": 7635,
      "▁overview": 7636,
      "响": 7637,
      "♥": 7638,
      "Provider": 7639,
      "▁Fern": 7640,
      "▁theater": 7641,
      "нием": 7642,
      "ató": 7643,
      "▁Architect": 7644,
      "▁SER": 7645,
      "▁Thought": 7646,
      "▁######": 7647,
      "▁elementary": 7648,
      "icht": 7649,
      "苗": 7650,
      "▁-*-": 7651,
      "▁responsible": 7652,
      "染": 7653,
      "ASE": 7654,
      "▁chest": 7655,
      "池": 7656,
      "пози": 7657,
      "药": 7658,
      "▁waren": 7659,
      "Switch": 7660,
      "▁VI": 7661,
      "▁участи": 7662,
      "Ď": 7663,
      "▁Manhattan": 7664,
      "string": 7665,
      "▁estimation": 7666,
      "\u0016": 7667,
      "▁ll": 7668,
      "rowned": 7669,
      "▁tang": 7670,
      "nen": 7671,
      "Clause": 7672,
      "▁\"'": 7673,
      "▁Rel": 7674,
      "ните": 7675,
      "▁lacking": 7676,
      "lit": 7677,
      "WD": 7678,
      "ethe": 7679,
      "▁mism": 7680,
      "▁imag": 7681,
      "▁interviewed": 7682,
      "secret": 7683,
      "ident": 7684,
      "锁": 7685,
      "▁Layout": 7686,
      "ims": 7687,
      "▁dall": 7688,
      "ским": 7689,
      "▁Null": 7690,
      "▁fro": 7691,
      "▁recently": 7692,
      "fony": 7693,
      "▁collision": 7694,
      "hard": 7695,
      "hood": 7696,
      "das": 7697,
      "ён": 7698,
      "▁string": 7699,
      "сло": 7700,
      "ʊ": 7701,
      "親": 7702,
      "heimer": 7703,
      "▁perman": 7704,
      "▁True": 7705,
      "▁tf": 7706,
      "▁Dog": 7707,
      "🤡": 7708,
      "Supported": 7709,
      "▁observ": 7710,
      "▁economics": 7711,
      "eval": 7712,
      "▁Manuel": 7713,
      "☉": 7714,
      "\"}": 7715,
      "▁sf": 7716,
      "uple": 7717,
      "verter": 7718,
      "▁gene": 7719,
      "FFFF": 7720,
      "ester": 7721,
      "▁Road": 7722,
      "exp": 7723,
      "brew": 7724,
      "inx": 7725,
      "▁clever": 7726,
      "input": 7727,
      "▁send": 7728,
      "▁feedback": 7729,
      "▁distract": 7730,
      "▁bien": 7731,
      "▁touching": 7732,
      "▁seriously": 7733,
      "▁Param": 7734,
      "pre": 7735,
      "▁Chelsea": 7736,
      "THER": 7737,
      "hora": 7738,
      "usters": 7739,
      "gfx": 7740,
      "▁noch": 7741,
      "▁manner": 7742,
      "▁Johnny": 7743,
      "▁education": 7744,
      "spring": 7745,
      "ked": 7746,
      "сты": 7747,
      "About": 7748,
      "ri": 7749,
      "▁That": 7750,
      "▁satisfy": 7751,
      "▁memory": 7752,
      "ause": 7753,
      "integer": 7754,
      "▁Auth": 7755,
      "etta": 7756,
      "▁Drupal": 7757,
      "▁productive": 7758,
      "⟩": 7759,
      "ocal": 7760,
      "setting": 7761,
      "▁Го": 7762,
      "DM": 7763,
      "▁stroke": 7764,
      "▁occ": 7765,
      "근": 7766,
      "+(": 7767,
      "▁Hawaii": 7768,
      "▁ро": 7769,
      "▁Fer": 7770,
      "▁Churchill": 7771,
      "point": 7772,
      "bias": 7773,
      "▁Э": 7774,
      "▁vers": 7775,
      "serv": 7776,
      "　": 7777,
      "auto": 7778,
      "neurs": 7779,
      "▁Klein": 7780,
      "▁posto": 7781,
      "UUID": 7782,
      "▁enf": 7783,
      "▁stalk": 7784,
      "▁panel": 7785,
      "who": 7786,
      "▁information": 7787,
      "produ": 7788,
      "▁efficient": 7789,
      "emen": 7790,
      "杨": 7791,
      "Limit": 7792,
      "赛": 7793,
      "▁Cre": 7794,
      "▁investing": 7795,
      "▁marginal": 7796,
      "sal": 7797,
      "стви": 7798,
      "컨": 7799,
      "hin": 7800,
      "esty": 7801,
      "▁Enc": 7802,
      "ého": 7803,
      "cheduler": 7804,
      "▁favor": 7805,
      "▁power": 7806,
      "▁beef": 7807,
      "▁Haupt": 7808,
      "▁Rivers": 7809,
      "▁lightly": 7810,
      "▁at": 7811,
      "▁prompt": 7812,
      "▁cell": 7813,
      "▁preview": 7814,
      "ried": 7815,
      "▁hence": 7816,
      "LAY": 7817,
      "reate": 7818,
      "comes": 7819,
      "▁under": 7820,
      "CLO": 7821,
      "迭": 7822,
      "て": 7823,
      "료": 7824,
      "operations": 7825,
      "▁diesem": 7826,
      "▁scale": 7827,
      "▁examined": 7828,
      "▁frame": 7829,
      "ки": 7830,
      "▁shift": 7831,
      "Geplaatst": 7832,
      "▁Do": 7833,
      "▁histor": 7834,
      "TRY": 7835,
      "icz": 7836,
      "▁$('#": 7837,
      "▁east": 7838,
      "grp": 7839,
      "▁intern": 7840,
      "▁про": 7841,
      "RPC": 7842,
      "ivals": 7843,
      "▁З": 7844,
      "▁Es": 7845,
      "▁notebook": 7846,
      "▁did": 7847,
      "timer": 7848,
      "▁requirements": 7849,
      "": 7850,
      "parser": 7851,
      "▁suitable": 7852,
      "▁shiny": 7853,
      "▁Oil": 7854,
      "Item": 7855,
      "▁lig": 7856,
      "itime": 7857,
      "▁Then": 7858,
      "зд": 7859,
      "▁Due": 7860,
      "ograp": 7861,
      "▁Cec": 7862,
      "▁Tit": 7863,
      "ON": 7864,
      "▁blown": 7865,
      "Where": 7866,
      "ven": 7867,
      "ida": 7868,
      "тели": 7869,
      "▁motor": 7870,
      "🥰": 7871,
      "UB": 7872,
      "iness": 7873,
      "▁Erik": 7874,
      "orld": 7875,
      "bel": 7876,
      "mal": 7877,
      "▁col": 7878,
      "pdata": 7879,
      "▁ind": 7880,
      "▁promise": 7881,
      "▁cry": 7882,
      "▁overse": 7883,
      "附": 7884,
      "▁Bild": 7885,
      "▁flight": 7886,
      "ecycle": 7887,
      "▁Bennett": 7888,
      "▁grief": 7889,
      "▁prepar": 7890,
      "ellschaft": 7891,
      "▁scaling": 7892,
      "▁recib": 7893,
      "▁Michelle": 7894,
      "atten": 7895,
      "stad": 7896,
      "▁passion": 7897,
      "▁stop": 7898,
      "▁uniqu": 7899,
      "▁deb": 7900,
      "ński": 7901,
      "▁narrow": 7902,
      "▁observe": 7903,
      "▁cons": 7904,
      "▁Dry": 7905,
      "EB": 7906,
      "border": 7907,
      "лага": 7908,
      "票": 7909,
      "query": 7910,
      "▁Mons": 7911,
      "CAN": 7912,
      "▁slaves": 7913,
      "Index": 7914,
      "▁caught": 7915,
      "团": 7916,
      "SS": 7917,
      "を": 7918,
      "▁Rep": 7919,
      "▁domain": 7920,
      "ox": 7921,
      "ן": 7922,
      "ַ": 7923,
      "▁mention": 7924,
      "CKET": 7925,
      "▁України": 7926,
      "▁Bright": 7927,
      "gle": 7928,
      "▁para": 7929,
      "\u0014": 7930,
      "ψ": 7931,
      "▁gewann": 7932,
      "▁Democrat": 7933,
      "▁Blockly": 7934,
      "▁Cav": 7935,
      "call": 7936,
      "utes": 7937,
      "que": 7938,
      "ih": 7939,
      "ž": 7940,
      "öm": 7941,
      "▁Marvel": 7942,
      "野": 7943,
      "Sa": 7944,
      "▁pi": 7945,
      "oga": 7946,
      "▁XIII": 7947,
      "inition": 7948,
      "▁Schaus": 7949,
      "getClass": 7950,
      "▁Skip": 7951,
      "⁄": 7952,
      "▁deriv": 7953,
      "▁defeated": 7954,
      "idge": 7955,
      "▁smile": 7956,
      "лект": 7957,
      "ONG": 7958,
      "▁combinations": 7959,
      "kfree": 7960,
      "": 7961,
      "▁retained": 7962,
      "▁Roland": 7963,
      "ège": 7964,
      "aring": 7965,
      "Cir": 7966,
      "▁Adam": 7967,
      "▁beds": 7968,
      "▁Cha": 7969,
      "%%": 7970,
      "▁silly": 7971,
      "▁pr": 7972,
      "▁Typ": 7973,
      "rows": 7974,
      "Љ": 7975,
      "▁ba": 7976,
      "▁Arkansas": 7977,
      "▁Roberto": 7978,
      "▁speaking": 7979,
      "ugno": 7980,
      "▁layers": 7981,
      "後": 7982,
      "▁overwhelmed": 7983,
      "TEST": 7984,
      "road": 7985,
      "録": 7986,
      "▁demonstr": 7987,
      "borne": 7988,
      "LO": 7989,
      "佐": 7990,
      "▁varieties": 7991,
      "▁Jessica": 7992,
      "▁sadly": 7993,
      "▁dedic": 7994,
      "Autowired": 7995,
      "слав": 7996,
      "ᴛ": 7997,
      "▁migrations": 7998,
      "▁Sed": 7999,
      "▁Durch": 8000,
      "clone": 8001,
      "▁Apply": 8002,
      "▁Mah": 8003,
      "чі": 8004,
      "▁Without": 8005,
      "▁levels": 8006,
      "二": 8007,
      "ko": 8008,
      "▁slid": 8009,
      "ли": 8010,
      "의": 8011,
      "▁AI": 8012,
      "▁Myst": 8013,
      "▁biggest": 8014,
      "▁reck": 8015,
      "▁magazines": 8016,
      "▁among": 8017,
      "DE": 8018,
      "skiego": 8019,
      "ynam": 8020,
      "▁syst": 8021,
      "hav": 8022,
      "▁Lead": 8023,
      "-$": 8024,
      "▁nest": 8025,
      "满": 8026,
      "platform": 8027,
      "_[": 8028,
      "▁Abu": 8029,
      "▁Mans": 8030,
      "рт": 8031,
      "▁adapted": 8032,
      "Strategy": 8033,
      "▁Forest": 8034,
      "▁è": 8035,
      "▁bands": 8036,
      "ibility": 8037,
      "▁Monte": 8038,
      "iber": 8039,
      "რ": 8040,
      "▁stadium": 8041,
      "arg": 8042,
      "询": 8043,
      "▁armed": 8044,
      "amd": 8045,
      "렬": 8046,
      "clude": 8047,
      "arta": 8048,
      "bec": 8049,
      "▁Og": 8050,
      "hci": 8051,
      "▁economy": 8052,
      "kon": 8053,
      "izado": 8054,
      "▁bus": 8055,
      "disp": 8056,
      "abor": 8057,
      "ilton": 8058,
      "Ignore": 8059,
      "мати": 8060,
      "▁thin": 8061,
      "▁enabling": 8062,
      "ipping": 8063,
      "earing": 8064,
      "▁населения": 8065,
      "▁included": 8066,
      "definition": 8067,
      "ço": 8068,
      "▁image": 8069,
      "tenant": 8070,
      "▁áll": 8071,
      "RD": 8072,
      "Functions": 8073,
      "迎": 8074,
      "’,": 8075,
      "vertical": 8076,
      "right": 8077,
      "▁puzzle": 8078,
      "LD": 8079,
      "▁advised": 8080,
      "ै": 8081,
      "orth": 8082,
      "becca": 8083,
      "樂": 8084,
      "security": 8085,
      "汉": 8086,
      "Camera": 8087,
      "ecut": 8088,
      "▁soc": 8089,
      "▁Ка": 8090,
      "Email": 8091,
      "展": 8092,
      "¶": 8093,
      "▁kole": 8094,
      "▁seam": 8095,
      "▁sin": 8096,
      "Bind": 8097,
      "▁handsome": 8098,
      "▁belongs": 8099,
      "њи": 8100,
      "▁tx": 8101,
      "äm": 8102,
      "DataType": 8103,
      "ancell": 8104,
      "iso": 8105,
      "▁dou": 8106,
      "▁absorption": 8107,
      "▁со": 8108,
      "LEFT": 8109,
      "ogs": 8110,
      "validate": 8111,
      "owa": 8112,
      "\\[": 8113,
      "▁nodes": 8114,
      "typen": 8115,
      "▁Image": 8116,
      "▁Linda": 8117,
      "▁Catholic": 8118,
      "▁challenges": 8119,
      "./": 8120,
      "▁pounds": 8121,
      "host": 8122,
      "▁non": 8123,
      "▁replacing": 8124,
      "rolled": 8125,
      "▁coalition": 8126,
      "▁irr": 8127,
      "▁ist": 8128,
      "▁affair": 8129,
      "▁map": 8130,
      "Certificate": 8131,
      "▁round": 8132,
      "▁Flag": 8133,
      "icket": 8134,
      "Doc": 8135,
      "▁trip": 8136,
      "Die": 8137,
      "GR": 8138,
      "▁advantages": 8139,
      "EXP": 8140,
      "▁queue": 8141,
      "ಸ": 8142,
      "접": 8143,
      "▁Jul": 8144,
      "▁absolut": 8145,
      "ペ": 8146,
      "нови": 8147,
      "▁disc": 8148,
      "▁coefficients": 8149,
      "itory": 8150,
      "bitmap": 8151,
      "▁sup": 8152,
      "▁chamber": 8153,
      "▁k": 8154,
      "▁protests": 8155,
      "▁'\\": 8156,
      "华": 8157,
      "Times": 8158,
      ".',": 8159,
      "omp": 8160,
      "вый": 8161,
      "▁convey": 8162,
      "ITER": 8163,
      "SF": 8164,
      "Pred": 8165,
      "Total": 8166,
      "pectives": 8167,
      "▁talent": 8168,
      "▁issue": 8169,
      "▁upset": 8170,
      "parameters": 8171,
      "▁Nem": 8172,
      "▁estaba": 8173,
      "itten": 8174,
      "anel": 8175,
      "▁fisher": 8176,
      "undle": 8177,
      "▁processor": 8178,
      "▁enum": 8179,
      "▁escort": 8180,
      "▁Hot": 8181,
      "Upload": 8182,
      "AST": 8183,
      "ɕ": 8184,
      "chars": 8185,
      "Pat": 8186,
      "ре": 8187,
      "val": 8188,
      "▁trop": 8189,
      "▁test": 8190,
      "答": 8191,
      "ODO": 8192,
      "▁radial": 8193,
      "▁officially": 8194,
      "subscribe": 8195,
      "мпи": 8196,
      "Cfg": 8197,
      "▁condem": 8198,
      "ization": 8199,
      "}',": 8200,
      "▁sleeve": 8201,
      "▁precision": 8202,
      "▁bomb": 8203,
      "▁enumer": 8204,
      "▁fee": 8205,
      "▁course": 8206,
      "sheet": 8207,
      "▁focusing": 8208,
      "UID": 8209,
      "ข": 8210,
      "mers": 8211,
      "▁>>": 8212,
      "affe": 8213,
      "▁lip": 8214,
      "▁sentences": 8215,
      "ved": 8216,
      "▁dirty": 8217,
      "▁explode": 8218,
      "▁afternoon": 8219,
      "▁de": 8220,
      "▁llev": 8221,
      "iggers": 8222,
      "▁Din": 8223,
      "met": 8224,
      "₃": 8225,
      "▁bigger": 8226,
      "cache": 8227,
      "▁concept": 8228,
      "Intern": 8229,
      "jsp": 8230,
      "bucket": 8231,
      "▁explains": 8232,
      "}\\,": 8233,
      "▁TR": 8234,
      "▁Un": 8235,
      "▁eigen": 8236,
      "▁Crist": 8237,
      "▁Books": 8238,
      "▁Tem": 8239,
      "▁fit": 8240,
      "▁най": 8241,
      "variant": 8242,
      "tober": 8243,
      "<!--": 8244,
      "sym": 8245,
      "Pod": 8246,
      "onde": 8247,
      "Script": 8248,
      "orsch": 8249,
      "bitro": 8250,
      "▁Rat": 8251,
      "Feed": 8252,
      "ifications": 8253,
      "▁houses": 8254,
      "▁Gun": 8255,
      "▁\"__": 8256,
      "▁cost": 8257,
      "▁enjoyable": 8258,
      "▁septembre": 8259,
      "POSE": 8260,
      "ท": 8261,
      "ח": 8262,
      "▁bond": 8263,
      "▁provoc": 8264,
      "▁Annual": 8265,
      "▁spher": 8266,
      "▁mk": 8267,
      "Operations": 8268,
      "▁parts": 8269,
      "EL": 8270,
      "JS": 8271,
      "▁bound": 8272,
      "▁Seven": 8273,
      "▁DM": 8274,
      "aya": 8275,
      "▁Om": 8276,
      "ක": 8277,
      "Prefix": 8278,
      "con": 8279,
      "▁screamed": 8280,
      "_.": 8281,
      "▁Sec": 8282,
      "▁theme": 8283,
      "津": 8284,
      "Inv": 8285,
      "▁ages": 8286,
      "▁mag": 8287,
      "▁Recent": 8288,
      "icrosoft": 8289,
      "*:": 8290,
      "Key": 8291,
      "'\",": 8292,
      ".]": 8293,
      "▁Ros": 8294,
      "▁През": 8295,
      "불": 8296,
      "▁supposed": 8297,
      "井": 8298,
      "▁Sul": 8299,
      "礼": 8300,
      "새": 8301,
      "anz": 8302,
      "push": 8303,
      "self": 8304,
      "▁aveva": 8305,
      "っ": 8306,
      "▁head": 8307,
      "외": 8308,
      "贵": 8309,
      "▁holding": 8310,
      "▁Hall": 8311,
      "ereg": 8312,
      "▁foul": 8313,
      "▁percent": 8314,
      "▁'./": 8315,
      "DOUBLE": 8316,
      "▁immedi": 8317,
      "▁ebenfalls": 8318,
      "▁Mode": 8319,
      "▁thirteen": 8320,
      "ску": 8321,
      "▁intel": 8322,
      "had": 8323,
      "▁rank": 8324,
      "▁станов": 8325,
      "攻": 8326,
      "▁Ober": 8327,
      "▁kicking": 8328,
      "♦": 8329,
      "ள": 8330,
      "ians": 8331,
      "▁Pier": 8332,
      "iko": 8333,
      "Unit": 8334,
      "▁secondo": 8335,
      "UNIT": 8336,
      "▁Language": 8337,
      "▁Like": 8338,
      "options": 8339,
      "uan": 8340,
      "▁може": 8341,
      "▁craw": 8342,
      "▁weekend": 8343,
      "Configuration": 8344,
      "発": 8345,
      "pieler": 8346,
      "▁hundreds": 8347,
      "imgur": 8348,
      "▁elite": 8349,
      "▁constantly": 8350,
      "acity": 8351,
      "▁conting": 8352,
      "iffer": 8353,
      "▁fulfill": 8354,
      "▁l": 8355,
      "▁Ту": 8356,
      "▁live": 8357,
      "eph": 8358,
      "ordered": 8359,
      "wohner": 8360,
      "▁hip": 8361,
      "ively": 8362,
      "": 8363,
      "Pixel": 8364,
      "AH": 8365,
      "*).": 8366,
      "▁missing": 8367,
      "▁definitely": 8368,
      "{\"": 8369,
      "ancers": 8370,
      "unal": 8371,
      "▁increasing": 8372,
      "▁sei": 8373,
      "Param": 8374,
      "зульта": 8375,
      "CO": 8376,
      "\\": 8377,
      "ww": 8378,
      "SPE": 8379,
      "лова": 8380,
      "▁Peters": 8381,
      "▁vocals": 8382,
      "έ": 8383,
      "Fac": 8384,
      "▁ig": 8385,
      "isce": 8386,
      "aces": 8387,
      "▁mandatory": 8388,
      "文": 8389,
      "▁aren": 8390,
      "fm": 8391,
      "ospital": 8392,
      "ael": 8393,
      "▁Ox": 8394,
      "ǧ": 8395,
      "rais": 8396,
      "▁hop": 8397,
      "▁franç": 8398,
      "rypt": 8399,
      "ин": 8400,
      "Subject": 8401,
      "▁toward": 8402,
      "▁ES": 8403,
      "мия": 8404,
      "liver": 8405,
      "fang": 8406,
      "▁him": 8407,
      "fulness": 8408,
      "Aff": 8409,
      "▁accurately": 8410,
      "Donald": 8411,
      "▁Six": 8412,
      "volution": 8413,
      "tó": 8414,
      "▁iter": 8415,
      "晚": 8416,
      "▁tow": 8417,
      "FIN": 8418,
      "app": 8419,
      "obe": 8420,
      "▁secretary": 8421,
      "▁Europe": 8422,
      "TYPE": 8423,
      "parse": 8424,
      "AND": 8425,
      "▁next": 8426,
      "#[": 8427,
      "▁Fail": 8428,
      "▁rede": 8429,
      "▁Progress": 8430,
      "wald": 8431,
      "mount": 8432,
      "ifference": 8433,
      "Cpp": 8434,
      "gra": 8435,
      "▁ohne": 8436,
      "▁Attribute": 8437,
      "▁exist": 8438,
      "爆": 8439,
      "ibrary": 8440,
      "▁ses": 8441,
      "▁NEW": 8442,
      "stre": 8443,
      "▁smiles": 8444,
      "ificate": 8445,
      "strings": 8446,
      "▁Tyler": 8447,
      "umber": 8448,
      "▁sedan": 8449,
      "cias": 8450,
      "modified": 8451,
      "коло": 8452,
      "▁Sister": 8453,
      "▁Clinton": 8454,
      "▁мо": 8455,
      "▁Budd": 8456,
      "▁Greece": 8457,
      "ucked": 8458,
      "ni": 8459,
      "reens": 8460,
      "▁creature": 8461,
      "骨": 8462,
      "Sys": 8463,
      "▁wy": 8464,
      "^": 8465,
      "▁hatte": 8466,
      "금": 8467,
      "ized": 8468,
      "Hint": 8469,
      "вра": 8470,
      "ња": 8471,
      "▁Agreement": 8472,
      "../../": 8473,
      "erson": 8474,
      "ago": 8475,
      "▁SI": 8476,
      "▁familie": 8477,
      "▁anywhere": 8478,
      "gd": 8479,
      "▁os": 8480,
      "'},": 8481,
      "▁вре": 8482,
      "▁Jeff": 8483,
      "Protocol": 8484,
      "▁того": 8485,
      "▁Parameters": 8486,
      "However": 8487,
      "▁polit": 8488,
      "Resources": 8489,
      "UV": 8490,
      "aal": 8491,
      "▁object": 8492,
      "▁Political": 8493,
      "▁traged": 8494,
      "igration": 8495,
      "▁expensive": 8496,
      "ไ": 8497,
      "▁Tol": 8498,
      "▁nationale": 8499,
      "intr": 8500,
      "桥": 8501,
      "▁ur": 8502,
      "▁Hij": 8503,
      "▁ADD": 8504,
      "▸": 8505,
      "ран": 8506,
      "▁snake": 8507,
      "▁breathe": 8508,
      "▁Much": 8509,
      "▁callback": 8510,
      "snd": 8511,
      "▁updating": 8512,
      "Bas": 8513,
      "varphi": 8514,
      "▁Cultural": 8515,
      "▁games": 8516,
      "horn": 8517,
      "idges": 8518,
      "ior": 8519,
      "▁python": 8520,
      "nant": 8521,
      "출": 8522,
      "▁Ot": 8523,
      "order": 8524,
      "ina": 8525,
      "faced": 8526,
      "gl": 8527,
      "cules": 8528,
      "sky": 8529,
      "imately": 8530,
      "▁NV": 8531,
      "▁Sue": 8532,
      "ea": 8533,
      "▁surve": 8534,
      "▁belonging": 8535,
      "□": 8536,
      "expand": 8537,
      "▁room": 8538,
      "mes": 8539,
      "▁influential": 8540,
      "empl": 8541,
      "▁Header": 8542,
      "width": 8543,
      "▁prefer": 8544,
      "▁DO": 8545,
      "轴": 8546,
      "▁spread": 8547,
      "▁unnecessary": 8548,
      "Some": 8549,
      "無": 8550,
      "▁comparison": 8551,
      "beat": 8552,
      "▁Hans": 8553,
      "ʀ": 8554,
      "▁Chamber": 8555,
      "til": 8556,
      "呼": 8557,
      "aria": 8558,
      "▁EX": 8559,
      "▁checking": 8560,
      "ské": 8561,
      "▁estab": 8562,
      "▁adapt": 8563,
      "▁Minister": 8564,
      "▁greatest": 8565,
      "▁назва": 8566,
      "okal": 8567,
      "▁attraction": 8568,
      "alert": 8569,
      "wy": 8570,
      "▁exper": 8571,
      "fic": 8572,
      "▁hips": 8573,
      "▁bub": 8574,
      "js": 8575,
      "avorite": 8576,
      "▁mad": 8577,
      "▁Pete": 8578,
      "▁artificial": 8579,
      "educ": 8580,
      "▁Fußball": 8581,
      "亚": 8582,
      "摩": 8583,
      "ury": 8584,
      "sburgh": 8585,
      "▁Flow": 8586,
      "▁général": 8587,
      "▁Arizona": 8588,
      "variable": 8589,
      "▁aussi": 8590,
      "▁matching": 8591,
      "projects": 8592,
      "side": 8593,
      "standing": 8594,
      "▁interrog": 8595,
      "▁py": 8596,
      "▁Muslims": 8597,
      "就": 8598,
      "▁bored": 8599,
      "▁outcome": 8600,
      "Term": 8601,
      "TOM": 8602,
      "▁dispers": 8603,
      "dit": 8604,
      "▁cared": 8605,
      "ade": 8606,
      "▁thinks": 8607,
      "經": 8608,
      "집": 8609,
      "▁instances": 8610,
      "▁bt": 8611,
      "ORD": 8612,
      "▁bowl": 8613,
      "▁activate": 8614,
      "▁activated": 8615,
      "▁Marco": 8616,
      "Ass": 8617,
      "▁zá": 8618,
      "}))": 8619,
      "ン": 8620,
      "▁dod": 8621,
      "գ": 8622,
      "ital": 8623,
      "▁passes": 8624,
      "▁blanket": 8625,
      "▁copyright": 8626,
      "▁hills": 8627,
      "mmc": 8628,
      "▁naam": 8629,
      "▁hes": 8630,
      "▁Gott": 8631,
      "家": 8632,
      "▁José": 8633,
      "▁pistol": 8634,
      "▁pare": 8635,
      "▁Ken": 8636,
      "Real": 8637,
      "▁secrets": 8638,
      "q": 8639,
      "▁Warren": 8640,
      "▁beliefs": 8641,
      "annels": 8642,
      "ifact": 8643,
      "▁Santa": 8644,
      "rait": 8645,
      "▁Rot": 8646,
      "rage": 8647,
      "▁incorrect": 8648,
      "▁squ": 8649,
      "▁cant": 8650,
      "▁insight": 8651,
      "itated": 8652,
      "父": 8653,
      "bc": 8654,
      "▁helmet": 8655,
      "▁Arena": 8656,
      "strong": 8657,
      "И": 8658,
      "▁neces": 8659,
      "shots": 8660,
      "uffs": 8661,
      "Resize": 8662,
      "▁Profile": 8663,
      "RIP": 8664,
      "=\"../../": 8665,
      "▁flex": 8666,
      "▁ambit": 8667,
      "▁causes": 8668,
      "▁fraction": 8669,
      "▁Gebiet": 8670,
      "▁Bond": 8671,
      "Ф": 8672,
      "▁Feb": 8673,
      "כ": 8674,
      "▁rig": 8675,
      "Const": 8676,
      "▁venne": 8677,
      "街": 8678,
      "▁декабря": 8679,
      "descriptor": 8680,
      "Method": 8681,
      "▁Mel": 8682,
      "ico": 8683,
      "▁Conf": 8684,
      "TDM": 8685,
      "▁Miss": 8686,
      "▁ein": 8687,
      "Sample": 8688,
      "▁Compan": 8689,
      "oshi": 8690,
      "▁aller": 8691,
      "▁victim": 8692,
      "▁Judge": 8693,
      "ández": 8694,
      "onces": 8695,
      "▁isol": 8696,
      "▁Legisl": 8697,
      "剪": 8698,
      "▁Democrats": 8699,
      "али": 8700,
      "▬": 8701,
      "icia": 8702,
      "ucc": 8703,
      "raft": 8704,
      "separ": 8705,
      "▁Claude": 8706,
      "Engine": 8707,
      "BA": 8708,
      "▁progress": 8709,
      "▁Hum": 8710,
      "ры": 8711,
      "pression": 8712,
      "▁lag": 8713,
      "sections": 8714,
      "▁^": 8715,
      "▁arrog": 8716,
      "berry": 8717,
      "ene": 8718,
      "▁count": 8719,
      "aude": 8720,
      "ira": 8721,
      "▁Software": 8722,
      "▁уче": 8723,
      "weak": 8724,
      "▁Barr": 8725,
      "▁woj": 8726,
      "▁Municipal": 8727,
      "cccc": 8728,
      "▁Naz": 8729,
      "Font": 8730,
      "▁penis": 8731,
      "FRAME": 8732,
      "▁fault": 8733,
      "址": 8734,
      "pgfqpoint": 8735,
      "▁Prom": 8736,
      "▁shop": 8737,
      "▁whether": 8738,
      "▁shorts": 8739,
      "▁Vienna": 8740,
      "ured": 8741,
      "▁agents": 8742,
      "▁EL": 8743,
      "▁alleg": 8744,
      "▁Air": 8745,
      "Writ": 8746,
      "министратив": 8747,
      "ũ": 8748,
      "uture": 8749,
      "amento": 8750,
      "▁engaged": 8751,
      "chk": 8752,
      "解": 8753,
      "▁fingers": 8754,
      "▁etern": 8755,
      "\u0007": 8756,
      "▁Deb": 8757,
      "▁Merc": 8758,
      "eken": 8759,
      "achine": 8760,
      "станов": 8761,
      "Own": 8762,
      "zeichnet": 8763,
      "prés": 8764,
      "▁Individual": 8765,
      "ональ": 8766,
      "odox": 8767,
      "▁Girls": 8768,
      "DUCT": 8769,
      "▁wedding": 8770,
      "▁produces": 8771,
      "▁programs": 8772,
      "nica": 8773,
      "▁joy": 8774,
      "▁described": 8775,
      "剩": 8776,
      "Clean": 8777,
      "Dev": 8778,
      "▁!": 8779,
      "▁Senior": 8780,
      "Conv": 8781,
      "▁muscle": 8782,
      "▁Josh": 8783,
      "ong": 8784,
      "omb": 8785,
      "velope": 8786,
      "worker": 8787,
      "▁loyal": 8788,
      "move": 8789,
      "▁ID": 8790,
      "▁Card": 8791,
      "Phil": 8792,
      "wen": 8793,
      "cr": 8794,
      "steps": 8795,
      "拒": 8796,
      "钟": 8797,
      "▁witnesses": 8798,
      "Variant": 8799,
      "▁placement": 8800,
      "的": 8801,
      "▁spell": 8802,
      "aint": 8803,
      "ism": 8804,
      "▁hotel": 8805,
      "itions": 8806,
      "errno": 8807,
      "TR": 8808,
      "thrift": 8809,
      "▁nep": 8810,
      "▁amplit": 8811,
      "▁gau": 8812,
      "Constraints": 8813,
      "▁BU": 8814,
      "▁sought": 8815,
      "▁bott": 8816,
      "high": 8817,
      "ch": 8818,
      "▁inhab": 8819,
      "▁return": 8820,
      "▁canonical": 8821,
      "▁место": 8822,
      "😆": 8823,
      "runtime": 8824,
      "ibilities": 8825,
      "▁recording": 8826,
      "▁=": 8827,
      "▁Sup": 8828,
      "ede": 8829,
      "s": 8830,
      "▁breaking": 8831,
      "管": 8832,
      ">{@": 8833,
      "▁complet": 8834,
      "av": 8835,
      "▁members": 8836,
      "▁always": 8837,
      "ichael": 8838,
      "养": 8839,
      "рей": 8840,
      "▁oppon": 8841,
      "ENOMEM": 8842,
      "Plugin": 8843,
      "▁unpre": 8844,
      "叫": 8845,
      "original": 8846,
      "錢": 8847,
      "▁competitive": 8848,
      "▁batt": 8849,
      "Perm": 8850,
      "▁donne": 8851,
      "opt": 8852,
      "▁Four": 8853,
      "▁Ber": 8854,
      "Theme": 8855,
      "▁wolf": 8856,
      "unit": 8857,
      "dw": 8858,
      "▁reasonably": 8859,
      "рі": 8860,
      "bere": 8861,
      "▁marks": 8862,
      "节": 8863,
      "ェ": 8864,
      "May": 8865,
      "iska": 8866,
      "▁Beck": 8867,
      "▁ví": 8868,
      "NOWN": 8869,
      "▁might": 8870,
      "▁%,": 8871,
      "▁properly": 8872,
      "retry": 8873,
      "▁Looks": 8874,
      "▁Sci": 8875,
      ",_": 8876,
      "▁If": 8877,
      "shared": 8878,
      "erten": 8879,
      "▁conn": 8880,
      "}[": 8881,
      "DITION": 8882,
      "iginal": 8883,
      "icans": 8884,
      "▁international": 8885,
      "circ": 8886,
      "Calendar": 8887,
      "▁fairly": 8888,
      "furt": 8889,
      "▁drank": 8890,
      "ú": 8891,
      "▁Customer": 8892,
      "▁Georg": 8893,
      "af": 8894,
      "器": 8895,
      "▁prayer": 8896,
      "▁crying": 8897,
      "▁Char": 8898,
      "aat": 8899,
      "Lat": 8900,
      "ќ": 8901,
      "▁operating": 8902,
      "urb": 8903,
      "▁Lord": 8904,
      "▁doubt": 8905,
      "▁optimal": 8906,
      "▁dés": 8907,
      "▁cycl": 8908,
      "igt": 8909,
      "opy": 8910,
      "▁give": 8911,
      "▁contin": 8912,
      "▁regulatory": 8913,
      "Slice": 8914,
      "▁hex": 8915,
      "♭": 8916,
      "É": 8917,
      "udi": 8918,
      "▁essential": 8919,
      "আ": 8920,
      "ille": 8921,
      "▁transform": 8922,
      "ARY": 8923,
      "▁Graph": 8924,
      ")((": 8925,
      "itu": 8926,
      "▁году": 8927,
      "▁});\r": 8928,
      "ificates": 8929,
      "shops": 8930,
      "▁О": 8931,
      "esz": 8932,
      "▁put": 8933,
      "CN": 8934,
      "▁attack": 8935,
      "emb": 8936,
      "ْ": 8937,
      "▁département": 8938,
      "argc": 8939,
      "▁Ban": 8940,
      "▁quant": 8941,
      "▁Tor": 8942,
      "▁confusing": 8943,
      "lar": 8944,
      "▁squad": 8945,
      "inn": 8946,
      "▁wood": 8947,
      "▁contempor": 8948,
      "▁Ві": 8949,
      "▁princip": 8950,
      "▁són": 8951,
      ")*": 8952,
      "ion": 8953,
      "▁directors": 8954,
      "▁superior": 8955,
      "▁Opera": 8956,
      "▁Hold": 8957,
      "Ã": 8958,
      "getData": 8959,
      "▁Three": 8960,
      "▁bre": 8961,
      "▁Florence": 8962,
      "▁attacking": 8963,
      "dern": 8964,
      "▁believing": 8965,
      "▁John": 8966,
      "▁como": 8967,
      "▁vars": 8968,
      "FUNCTION": 8969,
      "▁locked": 8970,
      "ès": 8971,
      "▁housing": 8972,
      "ский": 8973,
      "ilarly": 8974,
      "▁vacuum": 8975,
      "▁z": 8976,
      "Group": 8977,
      "▁шта": 8978,
      "_-": 8979,
      "▁ад": 8980,
      "oration": 8981,
      "acz": 8982,
      "▁False": 8983,
      "▁истори": 8984,
      "▁attempts": 8985,
      "▁Atl": 8986,
      "▁\\\\": 8987,
      "▁establishing": 8988,
      "onds": 8989,
      "icians": 8990,
      "▁può": 8991,
      "if": 8992,
      "нения": 8993,
      "asures": 8994,
      "▁Lex": 8995,
      "ReadOnly": 8996,
      "": 8997,
      "tle": 8998,
      "▁Nr": 8999,
      "medi": 9000,
      "▁Whatever": 9001,
      "▁Domin": 9002,
      "こ": 9003,
      "etz": 9004,
      "itute": 9005,
      "▁portion": 9006,
      "▁diff": 9007,
      "йн": 9008,
      "ก": 9009,
      "▁embarrassed": 9010,
      "▁Allow": 9011,
      "Ret": 9012,
      "▁сле": 9013,
      "elled": 9014,
      "▁Bast": 9015,
      "Could": 9016,
      "uras": 9017,
      "▁cogn": 9018,
      "oto": 9019,
      "fel": 9020,
      "▁Qual": 9021,
      "率": 9022,
      "▁movies": 9023,
      "业": 9024,
      "DL": 9025,
      "▁suggesting": 9026,
      "▁right": 9027,
      "់": 9028,
      "▁tempt": 9029,
      "▁excit": 9030,
      "sor": 9031,
      "ployed": 9032,
      "▁reveal": 9033,
      "▁improvements": 9034,
      "liferay": 9035,
      "ifying": 9036,
      "ert": 9037,
      "插": 9038,
      "▁gal": 9039,
      "ulative": 9040,
      "▁Beyond": 9041,
      "▁Motor": 9042,
      "ться": 9043,
      "▁Whe": 9044,
      "▁citiz": 9045,
      "SL": 9046,
      "▁fac": 9047,
      "▁dol": 9048,
      "azzo": 9049,
      "ulated": 9050,
      "('\\": 9051,
      "▁foods": 9052,
      "▁Cra": 9053,
      "▁calc": 9054,
      "ное": 9055,
      "▁use": 9056,
      "shot": 9057,
      "webpack": 9058,
      "▁Its": 9059,
      "▁blew": 9060,
      "▁recurs": 9061,
      "▁Chase": 9062,
      "▁ord": 9063,
      "XT": 9064,
      "▁Builder": 9065,
      "▁WC": 9066,
      "▁Curt": 9067,
      "dep": 9068,
      "atomic": 9069,
      "▁meg": 9070,
      "お": 9071,
      "LANG": 9072,
      "FROM": 9073,
      "▁cuando": 9074,
      "▁channels": 9075,
      "▁Baby": 9076,
      "▁Richmond": 9077,
      "▁star": 9078,
      "▁hunting": 9079,
      "export": 9080,
      "oard": 9081,
      "ША": 9082,
      "▁II": 9083,
      "▁besk": 9084,
      "▁changed": 9085,
      "monitor": 9086,
      "▁opportun": 9087,
      "▁Pas": 9088,
      "▁Fat": 9089,
      "Cross": 9090,
      "▁soll": 9091,
      "▁ю": 9092,
      "▁view": 9093,
      "▁broad": 9094,
      "rc": 9095,
      "▁марта": 9096,
      "///": 9097,
      "pad": 9098,
      "вро": 9099,
      "▁Loc": 9100,
      "gate": 9101,
      "angers": 9102,
      "curity": 9103,
      "▁them": 9104,
      "▁\\": 9105,
      "▁active": 9106,
      "ology": 9107,
      "lessly": 9108,
      "▁Oregon": 9109,
      "ability": 9110,
      "▁evident": 9111,
      "▁candid": 9112,
      "▁behaviour": 9113,
      "▁arguing": 9114,
      "removed": 9115,
      "inv": 9116,
      "erre": 9117,
      "Love": 9118,
      "デ": 9119,
      "▁più": 9120,
      "▁crit": 9121,
      "铺": 9122,
      "▁landing": 9123,
      "ourses": 9124,
      "▁бі": 9125,
      "▁drove": 9126,
      "▁bridge": 9127,
      ")**": 9128,
      "▁vas": 9129,
      "TON": 9130,
      "▁responses": 9131,
      "rd": 9132,
      "▁o": 9133,
      "associ": 9134,
      "нима": 9135,
      "▁symbol": 9136,
      "▁Remote": 9137,
      "▁taught": 9138,
      "皇": 9139,
      "▁subs": 9140,
      "кри": 9141,
      "划": 9142,
      "illy": 9143,
      "区": 9144,
      "▁Management": 9145,
      "▁instruct": 9146,
      "▁Money": 9147,
      "▁però": 9148,
      "Expr": 9149,
      "▁Mam": 9150,
      "▁Titel": 9151,
      ".^{[": 9152,
      "})": 9153,
      "ava": 9154,
      "▁Fortunately": 9155,
      "▁safety": 9156,
      "▁Glass": 9157,
      "дри": 9158,
      "▁Industry": 9159,
      "EqualTo": 9160,
      "▁hacia": 9161,
      "▁allies": 9162,
      "세": 9163,
      "▁Nav": 9164,
      "O": 9165,
      "év": 9166,
      "ник": 9167,
      "ise": 9168,
      "▁Arist": 9169,
      "ณ": 9170,
      "▁which": 9171,
      "▁rh": 9172,
      "fetch": 9173,
      "annotation": 9174,
      "elijk": 9175,
      "▁SS": 9176,
      "▁dt": 9177,
      "▁brief": 9178,
      "abs": 9179,
      "脚": 9180,
      "omi": 9181,
      "▁FI": 9182,
      "▁Rap": 9183,
      "▁Lé": 9184,
      "▁era": 9185,
      "레": 9186,
      "acon": 9187,
      "▁'[": 9188,
      "▁muscles": 9189,
      "äter": 9190,
      "▁decorated": 9191,
      "▁Stanford": 9192,
      "▁package": 9193,
      "ieron": 9194,
      "顶": 9195,
      "უ": 9196,
      "▁rectangle": 9197,
      "应": 9198,
      "▁els": 9199,
      "▁peg": 9200,
      "▁Jahre": 9201,
      "elements": 9202,
      "藤": 9203,
      "E": 9204,
      "ADC": 9205,
      "ppe": 9206,
      "generate": 9207,
      "▁hardware": 9208,
      "assemb": 9209,
      "▁intim": 9210,
      "▁Most": 9211,
      "Host": 9212,
      "▁village": 9213,
      "場": 9214,
      "phys": 9215,
      "葛": 9216,
      "▁clearly": 9217,
      "▁air": 9218,
      "▁caring": 9219,
      "▁monthly": 9220,
      "alties": 9221,
      "NESS": 9222,
      "▁NFL": 9223,
      "ap": 9224,
      "司": 9225,
      "etry": 9226,
      "▁Aud": 9227,
      "▁automatically": 9228,
      "▁gathering": 9229,
      "▁countries": 9230,
      "ulates": 9231,
      "regation": 9232,
      "ACCESS": 9233,
      "Li": 9234,
      "▁June": 9235,
      "ok": 9236,
      "▁Say": 9237,
      "країн": 9238,
      "▁describes": 9239,
      "star": 9240,
      "▁assault": 9241,
      "▁habitants": 9242,
      "asse": 9243,
      "▁una": 9244,
      "ikel": 9245,
      "collect": 9246,
      "▁Commonwealth": 9247,
      "▁meat": 9248,
      "she": 9249,
      "EventArgs": 9250,
      "▁sche": 9251,
      "Proto": 9252,
      "ifi": 9253,
      "▁Vi": 9254,
      "▁PH": 9255,
      "wand": 9256,
      "setValue": 9257,
      "▁manager": 9258,
      "清": 9259,
      "▁us": 9260,
      "States": 9261,
      "▁field": 9262,
      "draft": 9263,
      "▁assistant": 9264,
      "▁них": 9265,
      "чной": 9266,
      "lav": 9267,
      "▁operation": 9268,
      "usher": 9269,
      "iov": 9270,
      "▁Toronto": 9271,
      "Many": 9272,
      "▁cruise": 9273,
      "▁unable": 9274,
      "▁вер": 9275,
      "▁hommes": 9276,
      "**/": 9277,
      "复": 9278,
      "autres": 9279,
      "▁Brothers": 9280,
      "azar": 9281,
      "▁reserves": 9282,
      "GUI": 9283,
      "▁sab": 9284,
      "양": 9285,
      "ann": 9286,
      "rive": 9287,
      "▁dx": 9288,
      "▁finale": 9289,
      "声": 9290,
      "▁transactions": 9291,
      "igin": 9292,
      "封": 9293,
      "ფ": 9294,
      "clear": 9295,
      "▁download": 9296,
      "ourt": 9297,
      "▁tens": 9298,
      "▁Coff": 9299,
      "▁Commons": 9300,
      "ubernetes": 9301,
      "▁Bio": 9302,
      "▁Dictionary": 9303,
      "LC": 9304,
      "▁cement": 9305,
      "Г": 9306,
      "▁Material": 9307,
      "BY": 9308,
      ")$,": 9309,
      "Dis": 9310,
      "▁È": 9311,
      "▁:=": 9312,
      "ใ": 9313,
      "Enumer": 9314,
      "▁beiden": 9315,
      "▁_{": 9316,
      "▁shitty": 9317,
      "prot": 9318,
      ";&": 9319,
      "widetilde": 9320,
      "connection": 9321,
      "▁SB": 9322,
      "ku": 9323,
      "inst": 9324,
      "▁kid": 9325,
      "▁Under": 9326,
      "▁emphas": 9327,
      "play": 9328,
      "▁Middle": 9329,
      "vere": 9330,
      "▁Protest": 9331,
      "▁neur": 9332,
      "Failed": 9333,
      "б": 9334,
      "▁criteria": 9335,
      "agment": 9336,
      "▁OPT": 9337,
      "▁detector": 9338,
      "▁rolled": 9339,
      "vr": 9340,
      "enario": 9341,
      "on": 9342,
      "iore": 9343,
      "▁milk": 9344,
      "height": 9345,
      "mine": 9346,
      "int": 9347,
      "▁tokens": 9348,
      "త": 9349,
      "매": 9350,
      "▁File": 9351,
      "rique": 9352,
      "▁pushed": 9353,
      "▁hyper": 9354,
      "▁Left": 9355,
      "ainers": 9356,
      "▁Among": 9357,
      "/%": 9358,
      "▁please": 9359,
      "▁packing": 9360,
      "▁dispos": 9361,
      "вий": 9362,
      "kom": 9363,
      "▁Evans": 9364,
      "风": 9365,
      "apse": 9366,
      "▁happ": 9367,
      "Resolve": 9368,
      "▁host": 9369,
      "▁became": 9370,
      "▁hig": 9371,
      "▁surfaces": 9372,
      "▁works": 9373,
      "▁Queens": 9374,
      "▁Bez": 9375,
      "❒": 9376,
      "계": 9377,
      "otype": 9378,
      ">;": 9379,
      "▁неско": 9380,
      "▁Sql": 9381,
      "мет": 9382,
      "▁що": 9383,
      "▁invoked": 9384,
      "tt": 9385,
      "▁acceptance": 9386,
      "▁retrieve": 9387,
      "▁Position": 9388,
      "▁dropping": 9389,
      "adelph": 9390,
      "analysis": 9391,
      "▁poor": 9392,
      "▁rely": 9393,
      "Track": 9394,
      "▁going": 9395,
[...]
